/**
  ******************************************************************************
  * @file    network_data_params.c
  * @author  AST Embedded Analytics Research Platform
  * @date    2025-01-22T15:25:12+0300
  * @brief   AI Tool Automatic Code Generator for Embedded NN computing
  ******************************************************************************
  * Copyright (c) 2025 STMicroelectronics.
  * All rights reserved.
  *
  * This software is licensed under terms that can be found in the LICENSE file
  * in the root directory of this software component.
  * If no LICENSE file comes with this software, it is provided AS-IS.
  ******************************************************************************
  */

#include "network_data_params.h"


/**  Activations Section  ****************************************************/
ai_handle g_network_activations_table[1 + 2] = {
  AI_HANDLE_PTR(AI_MAGIC_MARKER),
  AI_HANDLE_PTR(NULL),
  AI_HANDLE_PTR(AI_MAGIC_MARKER),
};




/**  Weights Section  ********************************************************/
AI_ALIGNED(32)
const ai_u64 s_network_weights_array_u64[79401] = {
  0xae2323531b18112dU, 0x31172f44113bebd2U, 0xf1bce1dcc01daf4dU, 0x36ff2305f1d4ec23U,
  0xd4d1ff3627da0718U, 0xfd0bf8540f389e40U, 0xbcf1d52c2b2cd3b6U, 0x33b91d42244a3fcaU,
  0xf6ae812eb2fb4babU, 0x2f0cf22a1dbad5b9U, 0x40370f07abe118f6U, 0xd7016ec8cdbf1fb1U,
  0xee9619f2b5234e49U, 0xdecafa0701dc3ceeU, 0xa6adb7f1a3b6b307U, 0xf710e3c0130ff347U,
  0x12f76a35070afd03U, 0x27e821b3cdd30fa8U, 0x27a6fa1a41e81ea7U, 0xf1a9bad9cbc027daU,
  0x38f0c7402ff211a5U, 0x57cb4e5704a134ffU, 0x4bb229ecd1500e23U, 0xed55f1049dc06becU,
  0xf7269ee79ecbc825U, 0xd0d848b66ad7e7d4U, 0xcd982ab9de3d1d15U, 0xb3f463fa34aa715U,
  0xa92df418bd152dcaU, 0x192c0a178aefc43bU, 0xf2052d086100a1c6U, 0x3db10ee11cd1f0a3U,
  0xcb12bceff6ef23dcU, 0xeec9cc28c6cc2f02U, 0x271835b1fac68858U, 0x14e3d0de2e14520dU,
  0x1122e25dfafec61eU, 0xf6df225111af07ccU, 0xa9c480ce6da2220U, 0xb20f1ee5f61f4abaU,
  0x402f02eebfc22b0cU, 0xdde31939f459b3eaU, 0xe333ea09c8d0d93bU, 0x33fef60cc2aaebcaU,
  0x3a2faadf22ecc24eU, 0x553ec1c0421ef33U, 0xd4b4e07f07fbcb49U, 0xda23c5cbad2d5ac6U,
  0xacc2e7b3f4192ec3U, 0x3ddff3dbd81badeeU, 0xb2e6a7c247222e14U, 0xf0271b58681d034fU,
  0xd4c91ed9f70881d7U, 0x17dc4afc04fc3a2dU, 0xf3e9f1af3b141043U, 0x4acfc0050f3c39c8U,
  0xd9482a2e5e18e14dU, 0x1b1d102ed333a803U, 0x211c00e02c3ac92fU, 0xdad7fbeb1253e81bU,
  0x3817ebf14e0efb21U, 0xa9c44c4120fc5b58U, 0xc6d9092c4f1cd4c7U, 0x131c3513db09bafdU,
  0xf23f1e2f4483e3fU, 0x2bac2e2c2159fad2U, 0x649095bf3ddf705U, 0xd818e81c41b28bbfU,
  0x39fbba0631412af2U, 0xcbea410bd41ddc2fU, 0xe9c8caf6cf02f83aU, 0x3ed22df55a416ae7U,
  0x10d61dee38bfb3dbU, 0xfa3ccaa521db17d5U, 0x2e4127ae514efe09U, 0xebece0cefc01e5eeU,
  0x2f31ea4110b018caU, 0xe9ffe0afbf11ebf1U, 0xe1392ccb3bebe8baU, 0x213d3c0fca39bb26U,
  0x9e29081f02fdd031U, 0x531e736baf204f6U, 0xc12ae8e0cf49e239U, 0xec10ccbfeb20d8b5U,
  0xfaf41d32da12bc28U, 0xb109dc08d318b6fcU, 0x2439f607daa4f8f3U, 0x1ed9d7ed0c4cf00cU,
  0x44f9df03f75321e8U, 0xe61945f13658e6eeU, 0xb218d3fb2d412f08U, 0x4e0b080206b22aa4U,
  0xc42119bad74e1ddeU, 0xeee7e5b2e51e0aedU, 0x2f33d928401332f8U, 0xc237e7f4f83f1cf3U,
  0x95b4226bc8107afU, 0xc2fa2b2bc246ff3eU, 0xee0bf3b631da28fcU, 0x12dbf8d61317cbe2U,
  0xb20b5a37b54af335U, 0x21c550ff02bdcfaeU, 0x6618ffbae153227fU, 0xe59d904316ff0c4cU,
  0xd7e208150dc9664dU, 0x657ab759c1c91410U, 0x4adb24acec462cdU, 0xf1e3b9b8edcd5f2bU,
  0xa833df3a60bc5d68U, 0x73c0bc0eb37a2f4U, 0xfcbee184825057cU, 0x735f4fd6e29ae935U,
  0x294c02299c283152U, 0x54912b18a6edc45eU, 0xeee1b21c9da94012U, 0xd30ac94bc7bf06e9U,
  0x6afb401808beedf2U, 0x58d7d3700eb8c1b9U, 0xa7e3b3ecc4362258U, 0xb3f34674e920df06U,
  0x21b03348f4213c6dU, 0xdfea472213f37bf9U, 0x29d71cf6cc9d3247U, 0x4ec948df4253242eU,
  0x1b0961ed0d622dafU, 0xcf4314113a21cb23U, 0x6ddd91cbf722cfeaU, 0x32f33846b4dab5f1U,
  0x3c154450e61acac3U, 0x350d1018b5cc1adaU, 0xaa213706d1eb9df0U, 0xd7dfacc9cad40c53U,
  0x14f0dd5d30b8129U, 0xeba630e1f5e100fbU, 0x2c16590b286fb3fbU, 0x9f2cecdf1ea1527U,
  0x61d3d0940c13f7e8U, 0xf33cf3d82cfec04dU, 0x6142adf21aca35adU, 0xdd7370bd811da17U,
  0x2315c14232c3bed0U, 0xfa1ca2a6aec9f619U, 0xe7152be130e5ad5bU, 0x47f1ef29d922f61eU,
  0x352e3954c40c16d5U, 0x1b13f03de80ecf04U, 0xa00f7b1bfe7d5dcU, 0x1025fe2a2a37f44eU,
  0x2dbf17051110c9e1U, 0x174cf33818041a3aU, 0x522cbb8c0fa372eU, 0xb4330736f4d1ac19U,
  0xdbe4e3e00e13dfe5U, 0x3e5623f428b9d0baU, 0xce032715bd640d5aU, 0xed2bdadbc0731f1U,
  0x200de7df4fe2cc0dU, 0x3ff83a2d6ac7fc6bU, 0xe6daeef721344415U, 0xbffac5fee30131ffU,
  0xf239453310bc28b3U, 0xdbb5b8f1b60cf8b4U, 0x29e02e1dd3ea4116U, 0xf26432ed4b06d446U,
  0xea6a3dbe3b0c031cU, 0x455156341120f413U, 0xb8360329e77f1d0aU, 0x3701f5e0ccdcf9e3U,
  0xb4231a58ee01d010U, 0x4c3f1ad00435c2d1U, 0xae294741fa67925bU, 0x49fce93b35313a5cU,
  0xe0d6e536005427fbU, 0xcb06191d1e37f42dU, 0xe91bb7aa012a49edU, 0xcd0003ce40070a27U,
  0x2c24d7adddabbf3fU, 0x943cd0b0f7045faU, 0xea312069829e718U, 0x19a6b1dde897c38fU,
  0xa0554b0bf12bc70fU, 0xa073824eb96ff65U, 0xfdea23c11c1299daU, 0x48d30281d631efd3U,
  0xd6fe38d60b01ca48U, 0x2150d0533222d216U, 0x4106c99d0acc5050U, 0xcde0b8eef9bf15c5U,
  0x31e0e0a1b75c0da8U, 0x1537f2be29d5b00aU, 0xa045532540e6c21bU, 0x1418e586ce322157U,
  0xfce534494333d311U, 0x5adf92a3e6bea9efU, 0xe7d239392db0f3caU, 0xe7da363f08cfe121U,
  0x5726bcdad916e15eU, 0x36cd0c33c2251a10U, 0x3bcc21be8cbcf4a9U, 0xee321ebaae03d6a6U,
  0xe657f2eb2ffdbb15U, 0xa7dd8dddf60a852fU, 0xbbbded3a577110c6U, 0xe7f0fbbfb624bf0cU,
  0x184734dd00e53e28U, 0x3ee04f0545e2cc2eU, 0xddfbc504dff513feU, 0xe354ee4e1f2bfbb7U,
  0x15f0dceb35e14b3eU, 0x37b9f72feefc141eU, 0x635af7455835f5fcU, 0x2ac48cd0e3454742U,
  0xe9c7f60ad6e93714U, 0x33a21c3cbdfb8ddU, 0x250accd0cabaea06U, 0x613705b513f4d6d0U,
  0x2d3c16c6e172fe1aU, 0xb4e20755467f068bU, 0x4fcc4d7d3283917U, 0x3221c4004b3a035cU,
  0x6858f4b6d30eaafaU, 0x2db02e3e443b453U, 0x2bc82a201f6ab6a2U, 0xbfb5d8c0d50c25dcU,
  0xfddd09e634c309d8U, 0x3751ef19de2fcdcdU, 0x25c31017f80eeeefU, 0x411f1323f14ebe31U,
  0x2ec230e9c81042d2U, 0x3500e03a2b7f3eaeU, 0x30e0340217150b15U, 0x15cbf707e2f41114U,
  0x1121a0f1a1fdac0U, 0x13e10439161d24cbU, 0x29d8380307f6f7e5U, 0x1e1025f61407edf3U,
  0x10cf1acbd7f0c526U, 0x4632d00b1defd6d2U, 0xed181f3412eeed0fU, 0x51090c4a3a5c30dbU,
  0x31f527373c39dc33U, 0xca25e4f6d4ce0cfeU, 0xd035f22515d92236U, 0xe9e603b923f7fbf7U,
  0xd82dfcde10342209U, 0x1a092d33df3e40ccU, 0xec12d423caf9d1c7U, 0x40b3ed51123cae3U,
  0x30d50aee1427490bU, 0xf046da2c0c070c08U, 0xdafc917d0c1f2feU, 0x7eaf8647d4ef4fbU,
  0xf3b9c1f558430b27U, 0x33000143dc32fcebU, 0xcf24ca38f9292f27U, 0xb49b8463cbb1205U,
  0xcb4a212359f4f7eaU, 0x28d1ddeb2717ad2aU, 0x312cacc76b0acbb0U, 0xa42e1c3d2bf1f14U,
  0xeffec6e1453e1e00U, 0xed173ab52425362bU, 0xb0810f34cc5ea0fU, 0xf3aa7c9e1152ed4U,
  0x4043e6e313e24622U, 0xcfc3393546cbf921U, 0x113138c77ff20a26U, 0x5af01bbada1d8e2aU,
  0x3206fa5654f82607U, 0xef53ef05fe08e2abU, 0x181fb2f2ff50e2cbU, 0x52daf0b17b24c21dU,
  0xac0b1248bd89b9U, 0x22d5bf0b0a74ccbfU, 0xdbcdf7bf2b105dc1U, 0xd244085829380f0fU,
  0xab03e1ec4164b8d5U, 0x30340723f106e807U, 0x327233e11cfe0a7fU, 0x362f41de5b19bf8dU,
  0x61aa01bcdddc83eeU, 0xbff5f526d04ddac6U, 0xde4cdae91539199aU, 0x36e7e237fcc828c4U,
  0x4c2c56b7c14a2ab9U, 0x6c54e5af7c0e927U, 0xda3b1fdbfb768636U, 0x116b547a1e6c4a5U,
  0x5ad3cea0f0ee3b6fU, 0xadd756f856d73f42U, 0xfa2fe0f2eeeb1548U, 0x15583ef6ec0495eeU,
  0x1e2fc9d1beda02b6U, 0xbb653352e937acfbU, 0xd0e65b3b0fce8eaeU, 0x58b27248f5e3a7e9U,
  0xa5ab24fed0d6bc0aU, 0xeffde22175716c5U, 0x4b5b41e325d3d9c9U, 0xcbf94e1cc3e41f85U,
  0xe3c1463744f60f3eU, 0x31ce715253de9dcU, 0xb6f43bd0794edc20U, 0xfe1bc424a5c51abcU,
  0x5537e1d7fabf5f29U, 0xa75cc206d73502c1U, 0xf06ef454de441b8U, 0xd8f246161d247f13U,
  0x1411543d3acaee0bU, 0x31bbe51cfb16d10fU, 0xd113d4bb2e3b17afU, 0x2b1fc6c72dea7827U,
  0x2df6b314e3ecfcfaU, 0xb960d34f7fcbeab9U, 0xead5ab0afe63b366U, 0xa4be9274dda9326U,
  0x46d07301dc6f4742U, 0x14cbf7fc0d0f1f54U, 0x5336df63443d0f47U, 0xb40d3c950b2a21e4U,
  0x120fb9429b6a227fU, 0xbf50f2d9fd04d9b9U, 0xaf61dd85ec0d53cU, 0xf6ccbf26edd7309eU,
  0x3fbb35a8c43ebed2U, 0xc3fb0cca13394576U, 0x24ceb055e0cc101dU, 0x83150ab2815d2bcU,
  0xcfbe2d717aabdb9U, 0xeab3e6ade919ee1fU, 0xcbe1e8e8465446f1U, 0x1bec49f535247f0bU,
  0x3a1a3cebefef1040U, 0xf65be922f2b3c21dU, 0x1d9dcd201da1b26U, 0x41f2cb4af5f95249U,
  0x42d4f0030fae0192U, 0x99e21d00620c812U, 0x3ff0eaa5ffe37641U, 0x64eb3b1a3f4f7c0U,
  0x3a14b5f4d95f1b41U, 0x27d9da25e8076183U, 0xfdc1dc0eeffabb10U, 0x1605230bad1942efU,
  0x1f2b0d1720b90e56U, 0x26ae070553eccbc9U, 0xcbd641e2330f4eb5U, 0xba1ff3322836b92fU,
  0x402f71aaf1fd0bfU, 0xace638262e2deb30U, 0xe7e3da31e216ece7U, 0xa91225300004e9d8U,
  0xf6f82bfd03d5171dU, 0x29cdc6f54531ee13U, 0x502d0b0b1c2d2ef8U, 0xfbe61bcff73019aeU,
  0xd9c6d7dbc347cb0aU, 0x23ec4903202063d4U, 0xa815fc0046b3f2caU, 0x151fe342ea45bdfcU,
  0x4be9fa0433d4fd2bU, 0xfcf3d7024b2b195aU, 0x3033f54ef3100a09U, 0x4fd08edf7d87f49U,
  0x23c7cdf74c2719d5U, 0xfb1ce9c40418c07fU, 0x535043fc2c1f381dU, 0xc703e9fbc9144950U,
  0xf502101db82721eeU, 0xe7fa08a7bfd35750U, 0xc41d4ee4454d2d1fU, 0xc247ee2710def7d9U,
  0xda1ff60842daf90bU, 0x11070249f9416303U, 0xc002cac90ff0b30cU, 0xe2f5d52808d630edU,
  0x3926a5afa8a1f4e4U, 0xfab4222a1dffe785U, 0xd8c529971fdc113eU, 0x530349d75bc24906U,
  0xfaed153b5a021e07U, 0xd5e7ae2ccafc2307U, 0x349320dfe0373cfU, 0xce9ee6bf8196f3cfU,
  0x5d5ec0ca4f2f47fdU, 0x320a26f13ed411b7U, 0xbe561c29f4140906U, 0xf3bc325f1963f6e1U,
  0xfddfeb36a6cff257U, 0x35c14425deff6310U, 0xbfbdc315dced51d0U, 0xd200dcdcba07d8bcU,
  0xa43be583d4400c7U, 0x1363a42b14b505deU, 0x4a352a314dcdb703U, 0xc14724dbd6c3455fU,
  0xf3eceefb22b2ded3U, 0xf71afa4427bf3516U, 0xd2c1c4e200bfc12fU, 0xea1730f6cdb5f09eU,
  0x3bf4e3dcd2f34743U, 0xffc10e17d80f142aU, 0x19c723eedfbbe8efU, 0xe2bcd007fa04b31fU,
  0x30482ffd25c5d91aU, 0x47f0242e06c63fd2U, 0xdb170605eaf0109aU, 0x10c243d6f1fd7fffU,
  0xc728ac4e5241d7dcU, 0xc1eefd00c42e1f2aU, 0xba37cb39104a11aaU, 0xf5edde1549e1fefdU,
  0x62fe2a4e09d417cfU, 0x3aed34ee2fed7856U, 0xccdae61de0c00118U, 0x320e1182932c70eU,
  0x7aedf320d551602U, 0x3dbcbff8f1e81860U, 0xdd1c2803a33447fcU, 0xf103f029d336c9bbU,
  0xce3ad8f94de9c373U, 0x11efc82af7080bb9U, 0xbfb4193ce4effc13U, 0x2fadc934ee01dbecU,
  0xd50df811d2156242U, 0xd443c6d5f214c803U, 0x8ef62508bbf9db59U, 0xef103fbfe65a12bcU,
  0xaf8c736bb57d748U, 0x33d8e5c2db14daacU, 0xe1170be6e2561c4bU, 0xd0d2e9f0f842f3f3U,
  0x25342bf5c84bca22U, 0xefdfd50be50f99ffU, 0xbdf506e946bafeecU, 0xcd0508aaaee3222bU,
  0xd5b4c921ab3da908U, 0xc0bbb8aca03827e2U, 0x133ae1593c51e93fU, 0xe5302402acfdcd2cU,
  0xbd10f2b3d4f0b9c0U, 0x11d0a9c7f85e10e5U, 0x29041723efc08121U, 0x32fdd4e729cedad1U,
  0xa31413ce3eda2200U, 0x47e7061617ff2cc1U, 0xdac616f13349bbe9U, 0xb93e2f22efc40943U,
  0xf8482fc8c712bccfU, 0xb1be1029a7a9e7e3U, 0xd6d7f3c4fdbcdf19U, 0xfcf80ddc20e8f426U,
  0xdbfe020b034c5fd4U, 0xec450c2206e100ccU, 0xf22108d0eb29c03bU, 0xf2c520362c3d0837U,
  0xeac6dff2fa2cf03cU, 0x342f463ce91ad226U, 0x5e52dc932263f5aU, 0xe4d4df3e492cee3fU,
  0x4f2cd3c7f2d70b41U, 0x59f223fc12640f14U, 0xf9d6b2114619a8eaU, 0xb2025df250e20e2U,
  0x2ce73e2dd9152fe7U, 0xf10bf4dbb3f31619U, 0xcafc8f50c0c1011U, 0x40f93d03d0e5dd8fU,
  0xc107dce2e37f2c37U, 0xe2fc481a41023937U, 0x4c20392ff513f7a4U, 0xb4d71739f5162a03U,
  0x26ec0b2cf231d6e9U, 0x3fe1cf43e1054c2U, 0x28e14a38c647d70cU, 0x79debffc60e69b03U,
  0x12f9c51d0840eb54U, 0x403656dd34eb250fU, 0x2b5a5c06fdf17f51U, 0x2e18c3dfd3fbff05U,
  0xdf76506d0d1ce54dU, 0xc03759ae5238523cU, 0xb895453acf3e04f8U, 0x7fb1e9bd111135c3U,
  0x9cdbd8fed71be453U, 0x28e3bcbb3f603d45U, 0x22ca00050162e711U, 0x1e1151c153e1b949U,
  0x2d5ceac92e3353a9U, 0x30a53d0b3e9ee8f0U, 0xf0ae525a10e69484U, 0xf4c26c84a751796U,
  0xe7cab5e9d1e247faU, 0x4eb839162c22d5f1U, 0xf62f093737a0a22aU, 0xe85cd0c5d0560a4fU,
  0x2edab156e62ff311U, 0x4995c0b051f122fcU, 0xa6961b42c519af41U, 0x990bfdb4405e5e51U,
  0x1f5be402eb1c3563U, 0xe433fa105268df28U, 0xc1b731d6cd033714U, 0xe911d5d4d6e44051U,
  0xafc5fbe7b8510e1eU, 0x7fdbbbef819f138U, 0x36cf62c0648cbbdU, 0x28f6bc0039f1f54cU,
  0xc2f374b63f5e3dbU, 0xfce5cbba3cff646aU, 0x273effd6cf2f9db2U, 0x81cef7acfedb3ac7U,
  0x63044541f04b45f2U, 0xd5305b34fc01154eU, 0x550a1d164b2ccd17U, 0xead0cb4ec22625eaU,
  0xe1bf08e7300260d6U, 0x65c628fa49fbe537U, 0x5eae9261d3126f8U, 0xc6bcf59cd381cd1U,
  0x2c552f494837ef2eU, 0x39f14b2e3cf0c557U, 0xf9b5f9ff0df76517U, 0xf944e9defa0936f4U,
  0xeedfd4276519483bU, 0xfb2711f50efead7dU, 0x6eed47396524212eU, 0xd2324e1ac6bcf515U,
  0x42932e9ca6c7ac8U, 0x3c03fd46f40c042aU, 0xd9bad42cc3640530U, 0x24553d6678e213a0U,
  0xd4a63d1c4b34d2daU, 0xb53ce00434f0cad5U, 0xf506143aa313d6fdU, 0xf4bbb806d4e9353fU,
  0x4af2e27ce6816effU, 0x5032d71cce0bb14fU, 0x150130e3b15cdf32U, 0x4e462f00d2a7234cU,
  0xcfaf2eb35c572b2eU, 0xcca13910c9fd781aU, 0x38fc3d0560fe2e1eU, 0x1bfa25c6eefce537U,
  0x4afdf0161d2d31cfU, 0x4cc5403ed457028cU, 0x12faeae238fc00ceU, 0x62fe47f05192ad29U,
  0xcced2d4411f6613aU, 0x11cbd27dc26d82dU, 0x44c8f9c908d113e8U, 0xa6e1d742d4f40929U,
  0xf7e926fcd0dbccddU, 0xc30f3652e3f80205U, 0x14d8b72e09e71c31U, 0x2ac7f8c240380ce1U,
  0x85101f0cb240091bU, 0xff121e3db8c95224U, 0xd81efae1b232ee2cU, 0x1040ba0139e80f1bU,
  0xdf33cbdcda4cb943U, 0x9a537ca4139d422U, 0x2bcb41b904223223U, 0x6fcbeead23f051dU,
  0x3a3b0627e8ad22e3U, 0x2a1bff18d8e61215U, 0xc1bce025d0ed2207U, 0xb819bb29bc32e916U,
  0xb03c0b1ad3471aebU, 0x4da03bf23c41a03U, 0x3224251f3bb7dcbcU, 0x811040e4db3b2df2U,
  0x261432f8c03246e9U, 0xc9333d0ce805e1f6U, 0xbc1fe026ebbde360U, 0xbfef264a20cef013U,
  0xdae0e1e781c0cde8U, 0x1fe3d1184e33481eU, 0x4920e43d3d4cbcd8U, 0xbb41e8ef1e0e36ffU,
  0xb2f5431ec93cf7c7U, 0x1d1edaf0d82c2530U, 0x391a483e073143f1U, 0x500540f8243f1fc4U,
  0x20c2cf7e6cde519U, 0x2b48b8f8e248fd59U, 0x43c0133d395c50c2U, 0xad11244bc51df93bU,
  0xcc2a281a63f130f2U, 0xbbe71ad6b814e514U, 0xff0ccfcf012ac0ebU, 0x37f2ee0b0a03a6d7U,
  0x3c11cf46ee281cfcU, 0x1acec20be608ef13U, 0xbaefb715320d17dbU, 0xbf1db52fbc43ce21U,
  0xca0012bdf53abccaU, 0xb5d8dc37c9e24cdfU, 0xa9fffbfab6d0b324U, 0x310130ecd2f10c05U,
  0xd6082af2bb2ddb52U, 0x97beacf6d1438122U, 0x3b68405c5cbbf0faU, 0x481a358bfc483f54U,
  0x624df4737e8b500U, 0xf8baf8dcfcc6cd25U, 0x6bda1dee1362535U, 0xee30c7fc31289e9dU,
  0x90256b0e6e251a9U, 0x11a3e6414236e1deU, 0x4119c0b8d8c2001dU, 0x9b05080536229016U,
  0x941236cd81bb5e9U, 0xdf44ba5259d3cf53U, 0x4def570e4310bafdU, 0x43245a1eba5caff3U,
  0xf5dab2e4cb108529U, 0x9ed2cc24b5b93ad4U, 0x2494c20fba099813U, 0xd84c44e7febe34dfU,
  0x374650222d5bdb03U, 0x20d9e7042678bc2dU, 0x38f15038f73ed90cU, 0xe013f044ffee57edU,
  0x2222fe14d49d2439U, 0xdbdeff07e7071109U, 0x48f3c8b0c9384aacU, 0xca295b20b7218108U,
  0x1f3ecb4216d1f6fdU, 0xbbc3dbc6fd4101e0U, 0xc5eab2f9f04b2befU, 0xfc0d869dd13229aeU,
  0x24340c07e735ca28U, 0xc9b4fc54cfc1201eU, 0xf0b050cf2f3f0505U, 0x90dce13be1e4519U,
  0x3ef7ac2fd2095ba5U, 0xbe09094d28dc953dU, 0x5ce1e5e73106d9eeU, 0x8c0d5c2b1daaff0U,
  0x331ef917b7d82cc2U, 0xd03aaee8de476accU, 0xc5d533efeb1b91e8U, 0x2216f41ac4b93d1fU,
  0xf3533a0f0c1ccaedU, 0xc4e5d7ca37243e0fU, 0xf44141d01a6bbf9U, 0xf12f1fe9544a14a0U,
  0xf1c060756b220e4U, 0xccc1ddf240f623bcU, 0x10bcf20a0d5bf6f8U, 0x16f10d3de1ec7f0cU,
  0x2b2c0bf41514364bU, 0xdc3b412a24df2736U, 0xe231cbe40e27e637U, 0xcbd5d2e3db21d458U,
  0x3fd61dd03149269cU, 0xc71116ec1ac00551U, 0xf3092331c1bb16edU, 0x410c6c2d735202dU,
  0x1e45cce02cdf1543U, 0x33e0202711583017U, 0x1ae2117fce82521U, 0xf5ebb90c3851f2e8U,
  0xe9020521d218cf53U, 0x12e3d7da15f94196U, 0xbc3cf73aeb0457c9U, 0x323b28331bcdd82eU,
  0x2519e04f04b72ac8U, 0xd1d516434204054aU, 0xbf63a1ac63c0b44U, 0xca3ed423370b1adeU,
  0x1ee1d1023d2e1c30U, 0xdab903050fe118efU, 0x28fa33353f18f6f8U, 0x4d60443c0126d65cU,
  0x2801485f6d3e24deU, 0xdcf0128e105c621U, 0xc93c35473b590bfaU, 0x182807160cf8cf27U,
  0x2660150d1d4b537U, 0x8124e000f140ac03U, 0x1cddca0013474fecU, 0x523bf863541247e3U,
  0xd317ed3ae9fe4aU, 0xca08e5cc0f3d9ae9U, 0xe4c5a506aad6b96aU, 0x1b49e14e4c0ccf09U,
  0x2f84e6f6a74528eeU, 0xdf5835e716f71f91U, 0xc55cbe5fa020c0eU, 0x8cd2e1f1a4beabdU,
  0x22223c2108f611cbU, 0xcbb3c8d9eb033b65U, 0x3b3d49bf33e43c8fU, 0x3514d5170ccfe2f2U,
  0xec39eb02e034a531U, 0xd1c2f1e91e286daaU, 0x2516f33320efe94dU, 0x272207e371f54c07U,
  0xe05204dceaacda03U, 0x10ebf3dacce3e227U, 0x22072c3ffd301f08U, 0x1b3a2cc110b1d321U,
  0x4ed54b2dd6243ff0U, 0x183fff590515069eU, 0x11cf262446e666adU, 0x332d24cbef040c0fU,
  0xa8b5b0b67d5c3b01U, 0xc7c8c329f67fe9b9U, 0xc49155446e52b39U, 0xb7cf49d6276edf0aU,
  0xfdb11d57c8c33526U, 0xeed2ddf2bf5e153fU, 0x2de0b4f81eccb819U, 0xf405e2d22220d34eU,
  0x4009d6fbe73b42d5U, 0x290f1df0e63ceaecU, 0x4ccf1f623527b032U, 0xf638c0c766d84d63U,
  0xcc3c43d61507513cU, 0x2a06b6dc5d3fc250U, 0xcfc13c548f83e15U, 0xdef208e131d8f359U,
  0xe5b8deb7d1e4b62eU, 0x2f5bb81beead58ceU, 0xb7791a45a2bac0f5U, 0xe0d1ade2b6de3d7fU,
  0xd5455c53220ae233U, 0xdab7e5dc4be8df16U, 0xb06a2df066babb0cU, 0xee32e8feb419a3caU,
  0xc5d8b6b6db173622U, 0x356a1d4440140541U, 0xf8fcfd14ecf798acU, 0xf93914e2d53fb81fU,
  0xf1005e4832ca2bfeU, 0xda5ee93f43c0d74fU, 0x111ff68700c8bc3dU, 0xd13c5243a7a84dccU,
  0x3c60103effa035b3U, 0xf1bfb745c5b904bcU, 0xb232b9be5547ccfcU, 0xd720c568bee240c4U,
  0x37ecced8c61cca53U, 0x2ccc21aafacec144U, 0xff23ed268c0803a4U, 0x8be2ca7cf993bd5U,
  0xb9cebd02f1cdd2f5U, 0xbf3a0e0a2335b7baU, 0xd1e3f718eee2f3f1U, 0x2d2ac90d30addcadU,
  0x20f11bf8f11531cbU, 0xdc81e60da1daf4eeU, 0xfcf93009e906b60cU, 0x2ae63ebf29083026U,
  0xc5e7dad631f5aaf5U, 0x363dc24034295f0bU, 0xccefd32cd0f310b8U, 0x3ffff232e4db7cfU,
  0xebcddfe930d4b8ccU, 0x1cbdf0e5d912e90eU, 0xf9fc15f42dd9daddU, 0x39fec739a21eeb10U,
  0x5fa374c0120ff08U, 0xe00ed8330a28090bU, 0xf9c037bfec0da3feU, 0xe745c9e7f3255303U,
  0xefc1c9e011e34731U, 0x261be4c830110dd2U, 0x1c25d945d72617ebU, 0xd5ba2007ccbbf9f2U,
  0x2aea04311d0a00bbU, 0xf530fa0630bf2dd2U, 0x4b0d454138d2f2d1U, 0xc6032f17f5a43556U,
  0x160936391027192aU, 0xfc3a1ba959f212c4U, 0x6cca9b22e383ce1U, 0xdacb0901eed50cd5U,
  0x42e34b1720c2e057U, 0xe6c13dcd3af2500fU, 0xf5de3447022800e9U, 0xe5f560fbd654efe8U,
  0x611a38e52d1d3bc9U, 0xd5e20700c4167fdbU, 0x3e1167375824d91fU, 0x63cdcdc2e32e095U,
  0x1a08122f61edd845U, 0xfdfdd1bd2fcade43U, 0x21e1f4ff041f19d6U, 0x4110c1c563d2eb57U,
  0x2942444afb34ef1bU, 0xb3c606b31a2cfff9U, 0x3f52e7d31c1f7303U, 0x661a2afbaed145b7U,
  0x5120d602ebeb4030U, 0xc8b94928fe073e00U, 0xcfa13c0332657daU, 0xeadecbcc081e5df6U,
  0xfffffffefffffffdU, 0xfffffff900000008U, 0xfffffff4fffffff0U, 0xfffffffbfffffff4U,
  0xfffffff3fffffff2U, 0xfffffff900000005U, 0xfffffffafffffffaU, 0xfffffff0fffffffcU,
  0x4fffffffaU, 0xfffffffdfffffffbU, 0xfffffff1fffffff2U, 0xfffffffbfffffffeU,
  0xfffffffa00000002U, 0xfffffffb00000000U, 0xfffffffbfffffff4U, 0xfffffffffffffff2U,
  0x145d03a4130d060aU, 0xdaf335c4f2a2f7d9U, 0x103731532e2f34c8U, 0xff2d4b2b1124003bU,
  0xe8192d0534cdd6b8U, 0xa4f1e67cbff69bc6U, 0x3cdf173ed3a2da03U, 0x2181da33eecb8fbaU,
  0xc125ea0a1cfad549U, 0xf432abdfd423162dU, 0x1ebbe640e13e3c2fU, 0xb1c032c52048c6e6U,
  0xfb36eddbb509a7cbU, 0x284a18d6fa3a11d1U, 0xf14223de72df20bU, 0xb025b6b717cff904U,
  0x9ebb1d16fe1da999U, 0x1dbeafb0bb0eca3fU, 0xa205dfec101adfffU, 0xdbdfeaddb1de17e6U,
  0xde6deaf55a3d9e9fU, 0xc3d45fee355c2ef9U, 0xf3eb4befb145e60eU, 0x5bd331e05ad2ac2U,
  0xf6d4af06625532e3U, 0xe92abcc8d53bbe3bU, 0xe5da0f57b6ceeb3fU, 0xf905ae411cd04808U,
  0xc62b71cc7d63925U, 0x9ba5eed2abbbddbbU, 0x13a5ac4a2d13180dU, 0xadf3e834e4104e9fU,
  0x25231fc109f60395U, 0xfcead8b4ed2b392aU, 0xfb1df4dfcfde1fe3U, 0x899e0c1097cdfac9U,
  0xb8beded9ed72ed81U, 0xf309dade1fbe3804U, 0xf4cd3ec52541e282U, 0xf8dcbcde0cf6dcd9U,
  0xc3e9c51736ed02f2U, 0xd91fd26515dcb536U, 0x42ecc2c6c4dd1564U, 0x3b00b4b4553ea59cU,
  0x54e5ce031222dd31U, 0x18d8b41fe0d2df35U, 0x1dcbf0c1d23151d9U, 0x32c8192810920c28U,
  0x210fc4b429eaf9d0U, 0xd5fdfe0b32f0dfd9U, 0xa2fdcea89ddf179fU, 0xa62b3ea5e6bfcf4bU,
  0xb2df3104ed04382dU, 0xd61b28d72abe300fU, 0xa6f8b0f4beadd681U, 0xfcc8fdf737123a1eU,
  0x17270409e0403c1fU, 0xd71fefa8d9db1d33U, 0xd3e007cf39274728U, 0x5cd54abe07bcf00aU,
  0xfad8140129cc3332U, 0x416642ddcc28f0d1U, 0x20d23b988218a61aU, 0xa68d031e94e5aaa4U,
  0x9324ade6af281b05U, 0xc9773fa840dd8f0bU, 0x1f2128e0bc1faf15U, 0x9ba4b44f17b8eac4U,
  0x109ee4511a23e32bU, 0xd6ee1952c5a7f809U, 0x5607109a3d4a58b8U, 0x232a0ea9b1c30794U,
  0x3f2e72f7f70d9e7U, 0xf2b7f52d16b49607U, 0x5947d2c31ff5ddb4U, 0xd6b1fb13c33523efU,
  0xae2939be34354a0fU, 0x38144cb721d562efU, 0xd64ffc23bea06cdaU, 0x513cdc4e924f3de0U,
  0x2ccfc8032fcc1cedU, 0xc207fd1747fbcbd2U, 0x36f5c80fe800e2d0U, 0x3fdf4cfc3b9bcceU,
  0x4c1b3cc25b216beU, 0xe8d68d0245a0c631U, 0x5caddba0aed1125U, 0x42443217c0c1d82aU,
  0x4aa149a00d62db9U, 0x4eb2bfd60b0a2a10U, 0x52f4ec1acbd1e481U, 0xd1dab7d703a7de00U,
  0x170b4003122df4e5U, 0xe007e0e6290a2802U, 0x29f4bce3eed704fcU, 0xd735b7fbfd12ee45U,
  0x5a1a50e60eb40c38U, 0xcfcbfff1c707f8ecU, 0x7c08f30625c73d12U, 0x31e4120d380d1919U,
  0xc80a142000cdcac2U, 0xc43ae2c1bc29e839U, 0xae901e17fd4f3U, 0x81f27fdffc6f8edU,
  0x40e81f24eef6a757U, 0xcacb08f62f03ae38U, 0x1eb14407d32f2741U, 0xe92bc6d930e6cb24U,
  0x36ea1f1dd7d4fdb1U, 0xe9da2f43eaf5dcd3U, 0xa92819effb3b1614U, 0xe9abe93512dad0dcU,
  0x1e0e27c51de232b3U, 0x3629e514d90c21e3U, 0x25fd10452c431be9U, 0x1d36f9eab62323fbU,
  0xf933d8380fd22cc6U, 0x331d2d01ffd6b41eU, 0xfd471230e32edc0dU, 0xf4162912271f1a18U,
  0x1fade094f510cebU, 0x14a420ed26330fe4U, 0xb5c2c9bcd9abfd4cU, 0xc932c63ec5a6da1aU,
  0x41a54ee500ef2ea4U, 0x817ca1fdd37ffb9U, 0x46c7ccb5c8bf38ecU, 0xf93938ee44bc1d42U,
  0x5314cf14ef37efb7U, 0x1e19a7aeefb3ebd9U, 0x2cce28f016f71ab9U, 0x81c8ccf4f80e4348U,
  0xfbc541cd10570ec9U, 0xb8c72ff94dda255eU, 0x17fdcebd16e0de0bU, 0x8ab717253ebf09f2U,
  0xdc8d5204cde1cd06U, 0xd5afbfd2fe37e828U, 0x661624fa35b7e7d6U, 0xb8e42e0249b3dfc6U,
  0x49ffbf08d0acb1beU, 0xe1d9dcc538da1659U, 0x2a280114efee3c34U, 0xccf403cbd6a4f6f0U,
  0x3cd6000730e03fe7U, 0x3fc1b7dd541de137U, 0xfdf1a8f332ac01f2U, 0x22213fd2f0b81138U,
  0x20f3292bd7fd1afeU, 0xf82d2908fed74a18U, 0x470bb6b2c406430cU, 0xe921f1fe42bf1a22U,
  0xfa2b3117c9a1f717U, 0xdbd0000a23e5e335U, 0xdcf7d39a32a51de5U, 0x2c8cf7afe2f5e1f3U,
  0x54c4c7c739c7aaecU, 0xb2179dfa2aacf453U, 0xe20b1ce8ca2ce27fU, 0xe0cbc0ddfb143718U,
  0xe7a708aa94303600U, 0xbecda3e1b6259fd9U, 0x1b3919a0b1f9f70fU, 0xe9ace8f3a9814533U,
  0xef395823fa4448bcU, 0x2ecbadaeae47453cU, 0x194e204d11c60d0aU, 0xe0ff2f1af1fa1d17U,
  0xf931f6d7c53812b7U, 0x9fd30f3929470e34U, 0x28b5eaeace11b6cfU, 0x9625b137ffeece05U,
  0x184ea4e80862bcd7U, 0xd15c3b4cecb22949U, 0xc118165b4fe30a6fU, 0x213b3527f7fd4256U,
  0x460106d91624c500U, 0x333291f353924a2U, 0x4aff262a2b22cd35U, 0x1cd0dd3200ccbdcU,
  0x43ac6823199690f3U, 0xbc1128183b11f0d5U, 0xfe811e9520cf52e3U, 0xf921980230ce1cceU,
  0x49ac0ea1fdf58d3dU, 0xc2e9c931c213c9d2U, 0x2dbcf7ce2b0e4d17U, 0x3944fb0b39f93ecaU,
  0x60d66ef63850d546U, 0xa0aef798db223db9U, 0xcbec334536a2ba45U, 0x7404f5dd1b2f48ebU,
  0x18eab20747e2facaU, 0xbdbb12e62df92e46U, 0xe9c701e14520fbdcU, 0x4f05c0de2b34192aU,
  0x5ab33bcda905cc5bU, 0x4788bd352116bd3cU, 0x41d346e000903dccU, 0x42b8d3cb98ab421dU,
  0xbd3b4058702f7f6U, 0xa73bfab8caf098d2U, 0xb9dfff3e5710e3d4U, 0xa603f0094c4f107fU,
  0xf3b6fbe7c1dcfe2fU, 0xb10d4ab92b9b15d7U, 0x11265010500125feU, 0xd3938ca3ed6480aU,
  0xd6d113163699fdc3U, 0x35e544a80ca606c6U, 0xbaf6feded55243d0U, 0xbcd3da5af43617f7U,
  0x4fdd9f11a3b53316U, 0xb8ed65cceef4998fU, 0xf3fcc9645d1addcbU, 0x2442f09766f2eb41U,
  0x1877f9c9f50a43f7U, 0xb93eed4e330ee49eU, 0xb3bbfe29d36a548U, 0x453ad82e2bec3de7U,
  0xe7be4d93e12821d3U, 0x1bae2d2eed1ad1afU, 0xf7e513c615a8d828U, 0xc6a9d527ce451e9cU,
  0x1fa451f6190ff4f3U, 0xb9dfc5f20c36f007U, 0xb9deb1df11f7f2edU, 0xc9c01616d4c61cf3U,
  0x45fb0aed71c8e17fU, 0xf9bc4bce2f46dfd4U, 0x23dc72bec002158eU, 0xbad12da91078f5eaU,
  0xe1f6afbd13e5f7ecU, 0xab5302101ee2c2eaU, 0xc5d6c51ee6efa7d3U, 0x5032b8128d5a0dfeU,
  0xe4913aea5f4b34cU, 0x9547184c1a213ce9U, 0xa0dcb9b12608d62fU, 0x4a42cc44aad1120eU,
  0xcccb363eb6aa0fd2U, 0xa712d5df15e214c6U, 0x16c8ccf5bdf6b31aU, 0x797ab9c63cdf8d1U,
  0xd45f8c2c83da2bcU, 0x4e448bc86038d6f9U, 0xdc986305129cf525U, 0xe91d059b31b9323eU,
  0xd085997c5b1fd49U, 0xfffa60b0302c2d14U, 0x7652cd3ff849c74bU, 0x464cf0ccfd1f9471U,
  0xf77f2bf2aa9bf3e1U, 0xdeacb8bfe69b2910U, 0xf8a4d9e7dea73c47U, 0x340f10f270ddf6baU,
  0x6a035149ade49af6U, 0xb6ff12bd32c31cfdU, 0x61d8ae14033dc242U, 0xd82e02e467aca26aU,
  0x10051b99f310140bU, 0x5950a0ec3c212a0fU, 0xb411d8dc2632ebc3U, 0xdb3f39d7d9c2f50eU,
  0xc3ab10f6a5275428U, 0x2bd8b00c23c81abdU, 0xa914a8a01cdba4afU, 0xcc2ec0aa3c702bdU,
  0x37973155eddbe1a0U, 0xbec7bee4c2d7f4b8U, 0xe908cbcee056f307U, 0xaf23b350cde3b514U,
  0xfc11bf07e24ad2deU, 0x1e2e36f62414b7f5U, 0xd22134e1e57e48a1U, 0xfcbb150c466c1875U,
  0x1ef1fa14394ab5ebU, 0xac140dad51ec13dcU, 0x4b44d1f155b5601U, 0x7fc6da9d1edb3c4eU,
  0x4fc1ce1705f3d4e8U, 0xba814f3faaede9U, 0xfbaa0e8fc2c812eeU, 0xbe28d5560fedac93U,
  0x67b701eb59d73adcU, 0xcb20c64f0f63ae8U, 0x21b538ad189b255fU, 0x2114c524d792cda3U,
  0x218ad4130edddf1fU, 0x3b11bffd09379662U, 0x2e94c515b72b0ee2U, 0xfff735560e8a34ffU,
  0x4de05230e844be1dU, 0xe7d7e0e8f6fe2739U, 0xedc9df98d0b79d9eU, 0xeee83bee18ee383cU,
  0xfbd4c1143ef5963fU, 0xbcd5d1e9f2f9c465U, 0xdee7ef27343ddc00U, 0xf55e2f04e8402351U,
  0x2650a7c7b9121db4U, 0xc656602781d6b02aU, 0x7cef52906714439U, 0x5cb3a21aaf22bb8dU,
  0xad0dea21b1b7eea8U, 0x3ab811d2b2a4ffe9U, 0x33c44baa00da8ef7U, 0xf452fab1f973c7d5U,
  0x983ca0d12e4305f4U, 0xfce11549ef16ce1fU, 0x40d307e739d1cdd9U, 0xd8b423f7b32c3202U,
  0x109e1f2eba5b20e7U, 0xba2903f81e255729U, 0xc2b83b150bcd98cbU, 0x171824159e081ef8U,
  0xd18cf7ca3a2c2e5fU, 0xdeca6da633a717e5U, 0xe63d3a17db1190c9U, 0xf91823d8ca122835U,
  0xe446c55220ecddb0U, 0x1c57f4f8b4ff3ef0U, 0x3d4897c91b3ce9e0U, 0x3be5b04c8ad5f6f9U,
  0x1e72dc45d74dbcf5U, 0xf55a4219383c0ab5U, 0xf739300f6754e40fU, 0x813ab5552d6cbf08U,
  0xa16f260e1f34ad65U, 0x33df2fafe0ae32e8U, 0x45351fe0d0fde8d3U, 0x47cd25f91f3afc38U,
  0x1f67ad2fb7f6b0abU, 0x24273563174933bcU, 0xe8c304732cd00d7dU, 0xfcefc9512e0fcf3dU,
  0xc34207fd4ec800f3U, 0x423fc52610b13e53U, 0xd316e8d6f64a43e7U, 0xa910dfde29f492fcU,
  0x8d1559ea40a7eb93U, 0xe9aa36611fbbdf1aU, 0x890248a74f81d3d0U, 0x8d0454f73554cb0aU,
  0xcc10fe2a86f9b52U, 0xc50a47c3dd841007U, 0x9a209cf3bebd89bfU, 0x28d8c2d05c426525U,
  0xfff18a60eabd9a8eU, 0x450dfae441cf44ccU, 0xd79efec3ff20fce3U, 0x90b20d39492ca8fU,
  0x4f9c1c7ff102945U, 0x1a9ba1a3e6ec8e19U, 0x2817dc26f0abdbc5U, 0x26ebf2fafed1564bU,
  0xf8e3b3b05dddce21U, 0x3e070ee46bb26152U, 0xbf204b4a1f55abd2U, 0xec3099e91b96c3a6U,
  0xf4fbee19efff47f7U, 0xfb2bfc1407472fU, 0xfec2d2fd9be12a92U, 0xda44e3d5ae29ce09U,
  0xcfdcbdbaf5ee0831U, 0xdc0e39169d3bc734U, 0xbef4cafd1fe2f1c2U, 0x2cb0ae16ded3292fU,
  0x7fa9d8c5291bf604U, 0x3c25f4edc343d93fU, 0xef270aa684e92429U, 0x53c423c01814b422U,
  0x7b4e14271b2e0108U, 0x55ecf4c3cb269aedU, 0xcec597bfccab09a1U, 0xc20324382ab151e0U,
  0x46eb14cc57b80125U, 0xeb9a5fe4e9d635f7U, 0x1c15edd4f32ece0dU, 0xf8ed032734fc1a0eU,
  0xd50c8bb781374497U, 0x1335d46b87dae3c3U, 0xbce8ed8a10fdd10U, 0x4bfec3f51b1b1927U,
  0x92dcc712db344633U, 0xc62be5a2f2ebc3c1U, 0xbec59fdbbbfa2124U, 0xc3ce320afa19d8f2U,
  0xc4f012d1f60efe15U, 0x55f8ef2f46e9f340U, 0x1c0195d570bcdefU, 0xc05b4c083357ddf9U,
  0x92de522412f3843U, 0xd71c574d7d43ca8U, 0x693209da2fb1f2f1U, 0x3f0cc9df0f0ff02cU,
  0x3029943108191842U, 0xd3d822fb41f011cdU, 0xf4d85501d6f2320aU, 0xded8f45f502cc6fbU,
  0xd0fdb6af26191b44U, 0x459680b36f7defdU, 0x4d3de7dc55393b45U, 0x21e61cd02b42eee4U,
  0x11ffd9120c45f44eU, 0xf5fa60700fc6a8aaU, 0x4c13522b2b04a362U, 0xd3a8d420e326fc1bU,
  0xe03fdbd403090412U, 0x415d25da3d2af161U, 0x313af4e66063051cU, 0xec2d1a1eda3603b9U,
  0xc53312c1ae4927dbU, 0xa96eeb5d25dffd0bU, 0x55cdc122e3dec2ebU, 0x191e95a3307cdbcU,
  0xd6dc379f152e1f3aU, 0x81efcdeb2e12c8e2U, 0xd4e2e755fae7f2b8U, 0xd2c9fa02d70ede00U,
  0xd079e559813e368bU, 0x48b99604ca2fbf1fU, 0x89b019400ca9e62cU, 0xe2d5e7d9eca8d244U,
  0xd3069ecdceb2fe8dU, 0xf37ec5c2b9191ab8U, 0x3dd1b6eca91996cdU, 0xf132371b1a8dd8fcU,
  0xe551eced48053035U, 0xa61fbb3313f0ede4U, 0x197fdcd26214bf70U, 0x3bc62720f849d444U,
  0xaf05b7f97438313cU, 0xbb630b65c6123fb5U, 0x7f34335d0def0ccfU, 0xa6b6fedbd63311dcU,
  0x541e00e206be9116U, 0x2cb307e83befe022U, 0x26a6526678b23f11U, 0x1eaccc3f2a4fd8eeU,
  0xcf19f013fc0fc0c4U, 0xfd4aaf62e5051d1eU, 0xd93fec090725a6f7U, 0xf5dbcaef1c2029c1U,
  0xb2cdb0f1c1042f05U, 0x1ed9fa1b98fd503eU, 0xf84cafec1ad6ce2cU, 0x3dd8f2e6eb812215U,
  0xb816f523e8ba34e0U, 0x39cd06f39be3cb04U, 0xf01bc5ced5dbe408U, 0xcc350621bec7c105U,
  0x659eb9c5c6c4f2cfU, 0xdf37e3e1c70f40efU, 0xb7c02e9efbedbbd6U, 0x1de0e930fcfdc10aU,
  0x563098c827cbb6efU, 0x1e1b2c21e1abf21cU, 0xb8d63f30fbedaf39U, 0xefdb11184b020c0bU,
  0xe7f81a39cebe5188U, 0x4319bff998d3d706U, 0xb3aea43d4827e34cU, 0xbef7b915262e27d8U,
  0x2a6acb35a6fe1905U, 0x4f3aeef6f80cd402U, 0xfff5f93e292cdd25U, 0xf202e455b458b5dcU,
  0xb6e8d03c0416bfd7U, 0x532097eb23e0b24U, 0x1231201a4659be60U, 0xf9211e4b18e4c556U,
  0xb1f3c7fa46c4c53cU, 0xe37f0a34491e21bcU, 0x28c028febb1f2cccU, 0xde1b266bf1500522U,
  0x2f5527d71f292302U, 0x6a8275d27db4227U, 0x4136d4f1083437feU, 0xf6d0ad3207493301U,
  0x5048ab32bc0aa211U, 0xe74ee8ff9dd2a755U, 0x1de7a2c2810d01f2U, 0x3f0825f9d5dbfb0aU,
  0xcfdb501f2cdc701cU, 0xf63c43bf59b54b41U, 0xf7f1b8592ff3c5d3U, 0xca421edd26da3e94U,
  0x32f8e8c03dca4fbfU, 0xdf2b527fa0a3903U, 0xc3b312a88943f722U, 0x9208a03495aa399bU,
  0xe66243ed2bd4b04fU, 0x331058fea6c00a38U, 0x92f74bf2cf28b9f6U, 0x48e54026e8ea452dU,
  0x3d463537feebdff9U, 0x2895e2e5fa25c7e6U, 0xfaf00ef4bb5baaddU, 0x2e40322a2825a4d4U,
  0x90db4d607e1ce1bU, 0x9b4178725ac0027U, 0xa323ddf0df471c0aU, 0x3528d21abc9ae2f3U,
  0xb350383587ebcc35U, 0x9bac9ac4d91ac732U, 0x7c70ec83bfba418U, 0x31b9c7c91eabc29bU,
  0x44dfaa4809accdccU, 0xc91c22d2d399e1dbU, 0xbd1703ad2b15983dU, 0xb012c04819cfec19U,
  0x3b73f73721aa32e4U, 0xedbc4fe528f52d2fU, 0xbae26678f6febeccU, 0x44cb1b2f5f59f710U,
  0x428de1334a0a73aU, 0xb57f14b00e259fd9U, 0xea21272126284ca9U, 0x1a8aefeaf2a393e5U,
  0x51084d17a7ea1386U, 0xf2f07d6fc3c9fc2U, 0xfc3799e5e8fa4ccaU, 0xf3e7dee11fd4d94dU,
  0x57c646ce95f807c7U, 0xbbaada38c8e9b631U, 0x3f2e4fd2fee5f6dcU, 0xec01fb16e04ff82fU,
  0xd644e9ec8106e62fU, 0x16fda6a4feca3b38U, 0x4233282202dbab34U, 0xd914b5db4728d161U,
  0x1ab4fdced5eebbe2U, 0xc69ef9b367e0e59eU, 0xf329c2072db91b34U, 0x55b51c1610d60148U,
  0xc79019a983c8983bU, 0xf532baa20efb4045U, 0xb9439f1751f218ecU, 0x44a6f0e5e9e74a12U,
  0xf72b23e229ea3c02U, 0xc4eae33f09e0fbb7U, 0xec0ef4c2e9e4d907U, 0xe0f5e4e00eea0c20U,
  0xe2dc0a13fe01fdc2U, 0xed1feade38c03028U, 0xeacf1be7ded3e0e8U, 0xff4607d4054110f7U,
  0x3bd063741c345e1U, 0x2a45ead60335f5dfU, 0xbeea5126e135cecaU, 0x1cbafe25f904fdd1U,
  0x45f4c9f3e32cf532U, 0x1dbe35c9f9e5acdeU, 0x3ae55539f11338e2U, 0x3e2e02ed050525f1U,
  0xd9d5fd4de1cd0950U, 0xc21614c1e3d3d1eeU, 0xe1dd28ff0342de17U, 0x7fcbe3f63c2b17d9U,
  0x55f531be7a13043U, 0xd2acfaadf7cfacbfU, 0x6c1107edc369cf47U, 0x1a41f1f7c838e527U,
  0x98bdc28db62839d5U, 0xf8a7ff2cb79cead8U, 0xe0b1e211fc2efbfbU, 0x2d40e9ed49e0904dU,
  0x474b05e80c2e0123U, 0x81d40c5e44e12620U, 0xdb3d2afd456d3835U, 0xf2e6525d58e48549U,
  0x871f39d05c3323cdU, 0xcdf7ddc5f1a1ce42U, 0xd402044d2eebef3eU, 0xe4dd9446752cb0c8U,
  0x987001c2bdf4131bU, 0x44369b3bd2299627U, 0x9d0b2b5ba3ef5113U, 0xdbd49eb6da979eU,
  0x9538c56311c5d25cU, 0xd7cac9e739e227b9U, 0xc402031ba451cd12U, 0x48bdfe4fd62dc93fU,
  0x41dc55f6ca2fc3f9U, 0xadd5aebc33e5b33bU, 0xeffb53110506cec9U, 0xbbcd3f5e32dfdeeU,
  0xc6e40c16e08b2e24U, 0x9ce584e710bfab52U, 0xe6ca1bddc85e14d4U, 0xf93063183e3a4235U,
  0xc4936183bd3bbe3U, 0x4981cae4f714424bU, 0x1432ecf123dea5b5U, 0x3db6f8423d2bbfd3U,
  0xc62a3f0649151c24U, 0xcf83db4bc5104ac2U, 0xdfdcccc547afb1dbU, 0xf038fd334285c9abU,
  0x9c050f41e60c28fbU, 0xbdfa3252b204bc26U, 0xfeae1fe6ec2e1842U, 0x3622f64302222131U,
  0xf5ac33f4d0412c07U, 0xed243bed16fed4f8U, 0x30b44a00caf0b6e2U, 0x1112dbcda94904dbU,
  0x85811805cd28b409U, 0xe5faecc5b6fd042aU, 0xefc2fda82212bdccU, 0x2cf1ecdfa8e21cf6U,
  0xac11fbd0484536deU, 0x27b4181de21df5d3U, 0xf9b35bebeee5210cU, 0x2320c034b057d620U,
  0x86d0083d070820f3U, 0x26b10a3ab914da13U, 0xd1ed470d14dbbbf4U, 0x2ecd0dc5024a39dfU,
  0xe5dabf6f68f1191cU, 0x32a1c6b53457eb1cU, 0x24ba9d6871e20babU, 0x185a0f3267fe2058U,
  0xf4c62304e2b73f9aU, 0xf5f2cc5e0115274fU, 0xece85349189f22afU, 0xbfdb37b707d3cef3U,
  0xd85b0fa5c3eb12dfU, 0x5f03bdd1b9aee0b8U, 0xdc14bf2c1b179425U, 0xd0ba691cb154f09aU,
  0x4fc4f526ea910cefU, 0xd40b4deffbb1c406U, 0xb76ab449d2ab4165U, 0xf2b6cd9d0d43d708U,
  0xdab2f75cb6cdaf7fU, 0xf24c86403841d1f4U, 0xde7a9ce2a2391ecU, 0x474fe116fc4c4badU,
  0x96f148079a5dc331U, 0xbadb030521bae048U, 0xa8f6ced93ed71156U, 0xaf6ae33c51314236U,
  0x1141c261f581a4eU, 0xdd36f403501d4be1U, 0x116ab9902e46b903U, 0xf8fe34cdd5f3af02U,
  0x3644f220f457b6d5U, 0xd1102d0b9ff9245dU, 0x40493778eb69c8e9U, 0xdbdee364fd4ca807U,
  0xef90259263368175U, 0x36d21f43d25dc8d3U, 0xc0f0dcc3fb212919U, 0xe5c59f0932dab94bU,
  0xc510f41b4322b2cfU, 0x243ac6b21ee59aeU, 0x36044a64af026452U, 0xa3112f60e1d5052eU,
  0x33bfdec62dbadd8U, 0xcfa730f941d1f04eU, 0xe505383521e31724U, 0x8d10a8e0df4ad4f0U,
  0xa7dcbff894d8f01fU, 0x1fcb0161dc0ba010U, 0xdc811212bed86e37U, 0x450cebd6bba7e5c7U,
  0x9322b82c04f00dU, 0xe34a5d41d28d998U, 0xb6d0d30ddc563eb9U, 0xe4dab40d0b27ade7U,
  0xf61b69c34433f1a3U, 0xc3f316073763090dU, 0xf0fea03c943fc109U, 0x6e1e4e6d8e021e5U,
  0x12e124d3050cfc08U, 0xfe9ab5872457c73dU, 0xe150cc1c307119f2U, 0x4e17168b58c83cf0U,
  0x12239a72530eb96dU, 0xddc1f4ed65ba400aU, 0xed3c261e57431fb1U, 0xc7e9f12e432cbaf5U,
  0xdbcff7da39d5c0e7U, 0xc0629912cd2702d2U, 0x52dfdb382fcfcc0fU, 0xc6f3e11fa4c2cf58U,
  0xa7924bc310fc0a19U, 0x5d2f339d1702f03eU, 0x244a45300ebaffc8U, 0x851eb2c5a5e58b4U,
  0x9bf640d2abac11f5U, 0x11c3bf5eb18ef7a6U, 0xc11c7fb7df5568d7U, 0x2103ab05cfe9195bU,
  0xb5f30b4cdaaf9890U, 0x4ae6f4ea92a4d65eU, 0x9c3ec7b62f2d1287U, 0x2f80eb20af2abb4U,
  0x1b104d214abefaddU, 0xecc9032841cd3bbfU, 0xce5b3f2b033fd110U, 0x434ce30e30520335U,
  0xae51b958dbe645b6U, 0x26fe1e6dd8131f08U, 0xc4da45f0fefc2736U, 0x4ac8ced114f1d117U,
  0xc1511ee81d216feU, 0xbd2b08a4a63ce716U, 0xa7fe04dbd41cb5b0U, 0x43ebe5be1ade2113U,
  0x5eeee6eff7bc1313U, 0x3b13b0ffb432ce31U, 0xfeb4c998fbf3b823U, 0xbd0e2acd0bed0ee2U,
  0x134fd7cbddd6fbdaU, 0xfd9c414ccd324e2U, 0xc2f10e213fbd36e4U, 0x25ece0edf52e03d8U,
  0xb22481b5c7aebe20U, 0xa7dbc9e7f7e39cf8U, 0x96c2a8d7fea808e2U, 0xdf4b30e822951dd8U,
  0xd81cb0f625c5b6f3U, 0xdd0dfd35dfa49ac6U, 0xccb82724e41f4e48U, 0x40ca09df11b246b6U,
  0x642d08ddc829d2c2U, 0x3bcae3d9cc46dd34U, 0xc325a441e644c8a9U, 0xa8fd040df1f9c938U,
  0x18cad944f4043f16U, 0xf3deb5f54e3cd3c4U, 0xf37e9e4e6f1eef5U, 0x38250ca43312fbbaU,
  0xa25b3dc19d35952U, 0xcf2524f2e1e5ca03U, 0x97c7e1ce9b9df0dcU, 0x1038b3f712b4bfU,
  0xd29748410304b7f2U, 0x462deace1a50f154U, 0xfaacd356021ce807U, 0xd6dd3cfd57f716acU,
  0xd633c51957e2561aU, 0x3da117a80c22f532U, 0xa73281f49a893705U, 0xe7d0f302128c3845U,
  0x9c17d8482350d8a4U, 0x1cdb3a15e91ff82bU, 0x2bcafe9b06d4f4f8U, 0x2e3b17ccd23ebf2fU,
  0x2d03adf6da05eefcU, 0xea8e1b24e6d103b2U, 0xc0f2cb12949f0bc5U, 0x18d0313419b22418U,
  0xcbaddf341fd5f4abU, 0xb0a4abcbcc065bdeU, 0x9422b1df42ccc51eU, 0xb82d36c527e8ff35U,
  0x1f0dc7fa62e705dfU, 0x1d5b27dcf00c385dU, 0x3afce622c933cf00U, 0xec13424ad82b0fcbU,
  0xef29f427b0f0e61aU, 0xf92d30f0520620bdU, 0xa3eea48af93ca1f7U, 0xb109d152feeb2daeU,
  0xe8f3b731da13c137U, 0x3b1cea9827d6c540U, 0xb8cd4addbd47db10U, 0xf3ddf100718e5c4U,
  0x5de6baebbc344516U, 0xf0d7f5bdd832f6ceU, 0xb2f1d8f0b61b30a5U, 0x7fb1cdea062e10c4U,
  0xea00c8b72439cde5U, 0xbfb3cd320d4bebc2U, 0xaab83b16ff08489cU, 0x6b33add8d8c6e5edU,
  0xec9d5540595f3b02U, 0xea86c484e7ebc016U, 0xeafbd054c914a4dbU, 0xed44b81db4ea34c8U,
  0xf5aff95b6f4626b3U, 0xe9f47fae24d0e30cU, 0xdd8eb2f33c205fcU, 0xa60e0fa3d0c44cf4U,
  0x260b155968472700U, 0x49a06a3eb14c0608U, 0xc84953b8e5fb32dcU, 0xead633d526351df6U,
  0xd8a920635212cefdU, 0x3eabff099f352b01U, 0x5cc31a2fcc2abadeU, 0x21c2d71eec30c815U,
  0xf00e45f71636edbfU, 0x7df0729cdc90210U, 0x58d4dfcb4dc72f30U, 0x3daddec197d2ccacU,
  0x902e18070797ccf2U, 0xd3082740cda2ceb8U, 0xed0819ff20e9e36eU, 0x812113c83dba9a5aU,
  0xe842e7b7ada5f1daU, 0xbaea1641d3063cdbU, 0x1fd80430bff99999U, 0xfdb925e936c7bde6U,
  0xd237b8c4ee491032U, 0x161b2edbc4cd25eaU, 0x26ce2b543a0b171cU, 0xb352d84d56a70429U,
  0xf342bdf8d72c5451U, 0xf71414ed1eb5f5f3U, 0x13cbf1d54ad6dcc7U, 0x18c805a95a04da4aU,
  0xcdf89b19ee566036U, 0x15c5b73819118dU, 0xbe440940d8edd652U, 0x4be49dc8bd4ac520U,
  0x3c9eecdc260d97deU, 0x9d4e672dab1f4335U, 0x40d8f6444dfae1a2U, 0xd4beb63edf103995U,
  0x3d40145f444b26b9U, 0xa3c0f8e1370111f4U, 0xe615e6d8422eeed6U, 0xc818a31aa46226b5U,
  0x3d2e2cffddfc3f38U, 0xd84bdb61eab46baU, 0xb83dc82ced21a8c7U, 0xef5994ba1c613fe7U,
  0xf3320af14e5f1fbeU, 0x191c0ecaba01febcU, 0x4149e7edc21347c1U, 0xb9351ca04959d0e6U,
  0x81cd00be3ceecebcU, 0xc33d2f7a7f4dd08U, 0xbfc2cff7c0f2eed2U, 0x3fe51317a4cdd04bU,
  0xa0f0af97ffdfeabdU, 0xe30cf1db36b34c38U, 0xa91cd28d42564390U, 0x370a2bc61f88621fU,
  0x441240f8c8f30ae2U, 0xa542a7d6c0306f2cU, 0xf2a8f8f8c92ab6a6U, 0xa6b1fc1fa4eaf050U,
  0xb9558fd113002efU, 0xb789dcf7b4226927U, 0xfccc0211083faeffU, 0xdd12dc4e200fc3edU,
  0xce19252c29b9e389U, 0x1df9ecb1419d351dU, 0xcc22fb456b9905b4U, 0xb94e40ef1f0d0a7fU,
  0x459b2ee1c4550af8U, 0x58b2eddfd3a39cdcU, 0x523651f9c69f2f05U, 0x889d370130a78ac4U,
  0x2936d125270b37aeU, 0x9234315d51ac2b1fU, 0xf763242be516aff4U, 0xc5cea82bfffe4252U,
  0xf45328f90418d831U, 0xbe56701617489522U, 0x1d0a6e3a0b613a35U, 0x25c7f80b330b2543U,
  0xdcc8cdaa560ccf9dU, 0xce69a72aeff1b9d7U, 0xdb9ae37e3d91955U, 0x2bedc1b3fce3093eU,
  0x95f3d311b291a71fU, 0xabcbd4a6c52630b5U, 0x2c184fe8d64921d6U, 0xa2dafc3202d29ac3U,
  0xfd0ad324c2d1a3c0U, 0x2eeab7f241a23018U, 0xc3d1d27fbba0ea1fU, 0x79e43f822d646cbU,
  0x2cfa2b400dfc2cdbU, 0x2ce6f50de517bdc5U, 0xfc04daf92702231fU, 0xb1ef93701510b25U,
  0x1d53ebe1b03d1900U, 0xd601de02f860b925U, 0xeeee46e8f9182e46U, 0xff3fea41eae64230U,
  0xcadefe19ce294281U, 0x2fdde328d70133b7U, 0xff08c49afe03df0dU, 0x4cbc30ca986fd0cU,
  0xdd1bdad8c32db8a7U, 0xe3d6f603a1c209b7U, 0x9cb8bdabb613a11cU, 0x9bbecfed81e9cbefU,
  0x1ffef5fb0ff7e59bU, 0x25df0812f00120c7U, 0x24aec3fa0f06a824U, 0xfdb110d8dc022127U,
  0xbe11b110b7fb0202U, 0xc2d0c363af6cce8U, 0xa9040bcec0452001U, 0x3708c32905d2e014U,
  0xcdc2d33481b20fd7U, 0x70a219a260e9fdaU, 0xc5e80bbd0348edb9U, 0x8dd4115d3fef211U,
  0xae5fc2c9ac3216e4U, 0xb4e0f0c82b0bd1bcU, 0xe3241d1f0645fbb9U, 0x28071244e6f10504U,
  0x3208ee2ebb352ad1U, 0x19cf28f8fa3ffdcdU, 0xefd31709e902f053U, 0xf7c2214953e0ff10U,
  0xe62cf8d713d5f0U, 0xa8bbdf224f222409U, 0x193cd73feb21160eU, 0x3b09b4defbc6f5e3U,
  0xf031429ebce92c20U, 0xd73c1d1ace0fb2dfU, 0x9e0ebddec8205b6aU, 0x4ef11f0b3fe2f124U,
  0x3c2f2ddd9538c7b0U, 0x2338e8cfa2f2a150U, 0xac332b5ee52f811cU, 0xeb134320c62c2845U,
  0x3eaf31e3e3be0aecU, 0x5c9b19e6f0450f27U, 0x62e717a7ce2ae997U, 0xc0b28b28f4d191U,
  0x4d1d27dfeb5a3b4bU, 0x2627b812acaeddddU, 0x1bf1ddbff71cef43U, 0xa55baf926cc402bU,
  0x4b0bd1052c241259U, 0xb1e695f5f425b0d1U, 0x16ddd940363d23e6U, 0xc41bcc7de26c0d0U,
  0xf729e1e0d3078c48U, 0x8195d4ebcb53c1f4U, 0x1ee7f5189436512eU, 0x37a48ac4253f3cffU,
  0x2370322a1bea0e5U, 0x1cc3bff8d0fd0123U, 0x66280af0a1025d12U, 0x489e9a3a00e13e01U,
  0x1a28f2ab27c2e6a7U, 0x44cb0ccccfe9e515U, 0x5abfd7c6860d3c38U, 0xc7b93e5e9fca4b38U,
  0xb5fa571c29d9a274U, 0xcdfeb7cba6362f25U, 0x7ad7aac83b84993fU, 0x5feac9bd0ebbd62bU,
  0x4dbfa5f1440f3e9U, 0x488e12d8fb415a09U, 0x62359c041128ca40U, 0xb3d8c7e6243402b5U,
  0x2b51ef4dadd2da1fU, 0x3bb5550ae5ab26dbU, 0xcc5c8858fc82b4d0U, 0x39f6273635a8e72bU,
  0x9a48aa130656b0e6U, 0x61cdbe22c21a5b31U, 0x215935fa5440abc6U, 0x4c161602c0cb02e0U,
  0x2b6947bbdefedd1bU, 0xe6643233130444a1U, 0xe0001523ff50c66fU, 0xb2fdbdfa0e105a2dU,
  0x8efc2f0b162f22d5U, 0xbecdaa171aabeb1bU, 0xa699d9dd2217fc37U, 0x2de7dfbdfbd4e81dU,
  0xa87f0f48b5e51b37U, 0x3d3c2309c42531e3U, 0xc92052e1bcc21a7bU, 0xd753cf5fe8cfa738U,
  0xd84dd8b5cf2cb9c1U, 0xfef8ba0f21a9dee6U, 0xedeff3b891f7b4cdU, 0x8033c450e3b04e0U,
  0x41fee637bb99d12eU, 0xd33e07e711e5142bU, 0xa6cf4a20400cca81U, 0x31cab8c50840dbd5U,
  0xeb08132ee7e14842U, 0x31d7daab42c7b6a1U, 0xb1fa060e493cd3b5U, 0x2429f82d28364d38U,
  0x1612a3b18feeb9e8U, 0xd6203107663ef4deU, 0xfe413dcb2a144691U, 0x1a181a23dc26513eU,
  0x497e47a7030605a5U, 0x470177ce483e27baU, 0x2534f8f1cbd14a49U, 0x1d540307d5ec5352U,
  0xc6dea51d362dda3cU, 0xead020baf0f12f3bU, 0xb4f316bae4d8b0c7U, 0xc5ad051b655cbcc5U,
  0xb72836d5bf1a5748U, 0x25dea51d0d05de0fU, 0xdc3eb65411a62a2aU, 0x2b9c4be54fe9c6a3U,
  0x5259ac41c52dd224U, 0xfb94bcd6ae073aabU, 0xae5347194306addcU, 0xed15298d3ab1c5e1U,
  0x67adc7a2b9ebbc35U, 0x3c3abadab801aa18U, 0xae2d87a18c3fc95bU, 0xa11a3413bdfaedcdU,
  0xf5cc92ddd43faed1U, 0x45af382ebe02f200U, 0x2de81dfbd14f31dU, 0x96c5f8b21da1cb81U,
  0x4d1d2bd62b1cf0f3U, 0x89b7183ab9f616bdU, 0x47bce912cfcdd987U, 0xf4b63129efda1e24U,
  0x34c131cf2a2f153bU, 0x35c8e2daffc31feaU, 0xeaeae0fa1ec31eceU, 0xd190c41fe79529fbU,
  0x151dd9373c9fe0d2U, 0xda9712c732041719U, 0x538136fd2abbf5e7U, 0x2ffa2b09eb9204d4U,
  0xd4284ef14dd14645U, 0xa0ebc4be19c4d3cU, 0x2bd3e521d6b7e88dU, 0x98defbdae4993148U,
  0xf2a0f34b5d03d218U, 0xc82fd349c42063f7U, 0x2ea7f5c150e0d9ddU, 0xe7cd189cb7c5e80eU,
  0x2e13aca273b4902U, 0x23d96df803c02e30U, 0xcefd332bf510101dU, 0xea2cd916fc2cb83dU,
  0xaffbcb3eebbe133aU, 0xb622ddfd49dd3b01U, 0x1128f327efbf363aU, 0xca1d32dd4d31b4fdU,
  0x1ab8fcff08dde742U, 0x241ee54335cc0e2bU, 0x7b83ac63fe30739U, 0xfcdcce2cfbcc1e18U,
  0xd30718cabbf622e4U, 0xcf5b81bd8cffec0U, 0x3904ed01ff81e11fU, 0xb011f612cc1ed12aU,
  0xce01c63ee31dea28U, 0x24d3033fede41f22U, 0x3905110deae7060cU, 0xf81111ffcd0223e9U,
  0x360821be2e363d1bU, 0xd0d2faae0817eafaU, 0xd13be8c54adfe5acU, 0xb027fb2ca9f8dcf9U,
  0xb3d8d7cdff1730aeU, 0x25f403be4ad1feeeU, 0x71904aef76036c6U, 0x814f18efd9f5ebf5U,
  0xb3cb3be4f2563ffeU, 0x35d9c1c42cf8f5f5U, 0x1df351ec1d75d8c6U, 0xfab4fadf37dbc616U,
  0x2fd4e7c1ebcad2f4U, 0x23d437ddfc07d20fU, 0x1a41dfca406fbd97U, 0x3cf1bcbe18fae958U,
  0xe6eb0ab30d48ddd7U, 0x1a5cd9b932b6ca0fU, 0xc4704bbe6f84319U, 0xe7c4dbe83827025eU,
  0xb1d0d62f3fd3f631U, 0xe9150723f2dd04a4U, 0xfdf51a1d1e2fda10U, 0x25c41ca60a002ee8U,
  0x810820e303faf532U, 0xe4c5412a0e1716f1U, 0x9fe32d24f806eceaU, 0xc3e5b8025210e0U,
  0xd5fce91033c6eeceU, 0x201a1424cc29cee2U, 0xac1030de0f24f805U, 0xf8e511fcbb16ebb0U,
  0xe64703210204fcd7U, 0x31d7543af5da32e7U, 0x15ccd2aeb735e00dU, 0x133f3adacff8dbb6U,
  0xc1030ce8f2f110d3U, 0x282940cb2ff1f1b9U, 0xa2c03f0c122bbd01U, 0xfa2af5d8f5fbe1ecU,
  0xf881f4dfdc381de0U, 0x22edd9af2d1509eeU, 0x28142a34ea0f2db8U, 0x16dfddcc0c05eba2U,
  0xa3dfe0e9d6e30505U, 0xc319324d003b3901U, 0x1e01a3c9153dda0aU, 0xaf4a49b2e8a7e8d7U,
  0xa49ed2ef14dc11f0U, 0xab0ca79bdff2caf9U, 0x22bf2740e22a0008U, 0xdce0254f2a39f244U,
  0xebe1390ce4a80bfbU, 0x1e4a24a9c446d2f5U, 0x1aa3b53aa38ef142U, 0xf0fd1636c6de1412U,
  0x1f5d16061eee24baU, 0x34dab426b93dede7U, 0x9dfaea920cf213b2U, 0x1921f908b2e244c4U,
  0x29450d0e22ef20bfU, 0xf4fe25f92de92cc5U, 0x43dc330a0cebe20dU, 0x21fe113c3a4a1133U,
  0x14381a16e20c09bfU, 0x3413e0ff05c61528U, 0x1bea21ea0f39a6e2U, 0x2e12e523141032fdU,
  0x12f7e3d1bfec1096U, 0x28ef0addc5c32cfbU, 0xeb27b0001f0cf120U, 0x15e7d8f3b490edd9U,
  0xdaebe6ec02f0e4c6U, 0x28e7ded1af0a07b8U, 0xb7e0acc5b125e5dbU, 0xeceeb8de81eacf9aU,
  0x52bde2bb10371c0cU, 0x1de4cb23dec8f818U, 0xebd4b008fac8092cU, 0xb4d8dbec0b16f7eaU,
  0xca063d0c3ac73601U, 0x1c2315341eca1001U, 0x9d1b3b4bdfbc2940U, 0xe0473b2cea0c3d38U,
  0xd0630013c6c4d50bU, 0xce5fb1ec05f84342U, 0x6541e5230a36d737U, 0xefa5bc5fffb8e1e8U,
  0xd837bd1ac653f32fU, 0x221d66e0aeea617U, 0xba9e74ada43a727U, 0xfcc1cee8ec591416U,
  0xedfefed80decda9dU, 0x470fc497002ceca0U, 0xb80ec4cad317c4ccU, 0xe72714b7d6a213fdU,
  0xff6b0201d8e5dd40U, 0x1ce41b7f269fcdcdU, 0x25042f1358dcec02U, 0xc40a2cfafe23c2c0U,
  0x1881ef4a5f15a821U, 0xf0e212cc37fdb22aU, 0x25d1fee91105d4cbU, 0xb23db8bc065dfbU,
  0xe3ac412c420d0b45U, 0x9ccf37bedbd9d3abU, 0xd8d65045f138bdf6U, 0x1ec1d0afa708321aU,
  0xc502e815f1e7c0ceU, 0x30eb4027ebf0dc11U, 0xd40f16e3e4e7ff0cU, 0xb25b6befc19fcc5U,
  0xd1eb1a212e402037U, 0xf1581152f3e4f30fU, 0xe8e7ffc8b81ae927U, 0xc619a81de6f613b8U,
  0xc2ca02cbe21aa551U, 0xf8e93d040a2a389bU, 0xdfe9e2d4d2f9ca3bU, 0xd4dcf12cfb1004bcU,
  0xba4ae3bfbcd8d2cdU, 0x1e5e407646edcdf9U, 0x38da22564cd54752U, 0x4b1c16b981bb1b0aU,
  0x283aa2d7cf52c80dU, 0xd3d148272a3fec26U, 0x73dad8e90b28c69dU, 0xe944b1d3399be2caU,
  0xf6df5516e2ae1ecbU, 0x1df43abc18af19deU, 0x39992363089ff1faU, 0xeefb9fc90b444121U,
  0xf712b8da2bb1a41aU, 0x9cba503138b7fa2fU, 0x7b60eae7ccc61a0eU, 0xba164cc4c7e3eaffU,
  0x5d3a530fa440d4bU, 0x4b3db4ee42554d26U, 0x9a08065f48692e20U, 0xb7d3e0b94a0333fcU,
  0xbabcc1bd2c44c59aU, 0x28bb0501856adbe5U, 0xaf0e0fc418cd11bbU, 0xcb57c5fff1f74cccU,
  0xf7fda3daad6ee31aU, 0xabcdbed30fd0eee1U, 0x9707d53b19ecf7c4U, 0x38541a1402a1c4ecU,
  0x991f0834eff29d37U, 0xdb43c7f8a462b933U, 0x249fb0f1aa511a47U, 0x37fbab12b202dc69U,
  0x17fb03cfc7502d28U, 0xf5f31a81ab06db22U, 0xda183ce9e92c2608U, 0xbfc001aee330c2e5U,
  0x5028d4dbf60e05ccU, 0x16c52f09efffe3f5U, 0xd54cf72027e9f8aaU, 0xd11ef5c8bf302436U,
  0xb1a94e2a1033264fU, 0xee002d263fd3d3f0U, 0x3f4ec282a31ddc9U, 0x24281ccd3c47f844U,
  0xf8ce08ead9bfb72eU, 0x108136f9cbbfe3ccU, 0x12de2f06d91b29c6U, 0xcea1ec71fd0e52bU,
  0x2d0f1f102505d0e4U, 0x18d00cd6dff8291dU, 0xd3f53a2d2dfbb811U, 0x25faeb0df6fa38a8U,
  0xacd0dceaf00113c8U, 0x3ab8ae34b6310d41U, 0x21c9b41eef09d92aU, 0xa04bac105c434d7U,
  0xc80404b0a9f8b5e5U, 0xd3eec813efe71c37U, 0x19430e00fe0c2d3aU, 0xea2edfef02031905U,
  0xd8c0f3c3d9bdc302U, 0x561096b0fae702f6U, 0xf4f99dffdf813636U, 0xa1bac6f4f2baef00U,
  0x2de2f240add9f302U, 0xcb0ddd2612e9ce39U, 0xe439242b9ab8ffbeU, 0xfc1a40c82807f7acU,
  0x2fef01a44013c6abU, 0x48dba0d54f382d2fU, 0xcedfa4fad6db42a1U, 0xef0c520ddb15b134U,
  0xf1c01bf12dab0fb2U, 0xcce5dcc935bd0d43U, 0xa25deea193d3ea6U, 0xe8bbbbb2b0135940U,
  0xf63eed4ae128ccb1U, 0xcdb720e107f2ed54U, 0x22450220e4134396U, 0xcf00261f05f15611U,
  0xc50df0e10eaa03deU, 0xe29863fd0409be38U, 0xfaf3df4cdfb6ebdbU, 0xb412c9ee55591331U,
  0xe62aed9888e60acbU, 0xd816e1ece3c3433U, 0xe51c3acfa9334fe8U, 0x23f3cdd7afe732bbU,
  0x835250910a93d0dU, 0x26d1221aefbfefd4U, 0xc5f6fea80d1218d9U, 0xfe23d4bc1af847acU,
  0x2d34d627c897e0bbU, 0xf6b9d71bc5f32ab6U, 0x9adba9f8d3b2b78cU, 0x22e3beb8a2053493U,
  0xf412be0bf42819f5U, 0xd72cc8ca061435d2U, 0xb50d012310f5210fU, 0xbe0e45acfcc125f8U,
  0xc6ffffffbfU, 0xcf00000024U, 0x1efffffff6U, 0xffffffd300000078U,
  0xffffffb00000001aU, 0xfffffffcfffffffdU, 0xffffffe5ffffff5aU, 0xffffff6700000036U,
  0xffffff36ffffff2aU, 0xffffff73000000caU, 0xffffff66ffffff9eU, 0xffffff6affffff46U,
  0xffffff61ffffff97U, 0xffffffc0fffffff3U, 0x6affffff32U, 0xffffff9700000012U,
  0x2cffffffbaU, 0xffffff93ffffff5dU, 0x5700000021U, 0x3e0000010dU,
  0xffffff84fffffeebU, 0xffffff63ffffffe1U, 0x1e0000008aU, 0x45ffffffb5U,
  0x10ffffff5eU, 0x8fffffffe3U, 0x7affffff7aU, 0xffffffee00000005U,
  0xffffff31ffffff67U, 0xffffff7dffffff80U, 0xffffff9d000000f2U, 0xffffffeb00000082U,
  0x25cbb912e014c6daU, 0xb1cbb917ddc2d9b8U, 0xfe090db709b80005U, 0xf02c27f5d10a1abfU,
  0xab963313d8ca1c02U, 0x26de0fdbbd2420d7U, 0xefbd38c8debb00f9U, 0x5bc2cd1061f0e40U,
  0xc622f7ffd7cd24e1U, 0x34e1ec26c90913c4U, 0xbadc47b40844f845U, 0x6f9bc3bde0e36daU,
  0x2e7df6cd5d2b798U, 0x1ce20c3a3b42f163U, 0x1ca0b0efd64d2510U, 0xb8b41328f1ec4543U,
  0x341b1413dacdd201U, 0xd59515ccf62ebee3U, 0xa4117e125001011U, 0xc1188ec39bf9f18U,
  0xd9daf0fc47f2d633U, 0xc1de5becf28170eU, 0xdb2de809e3cb46faU, 0xb2cef04cc5c51127U,
  0xbd03814ee6b3278aU, 0x5cd703d1049c0dc4U, 0xf7f91c24db1408f2U, 0xbe07c4342e2abcc3U,
  0xe5e8b2ed2ca9cf38U, 0xec08cef5d0c83b12U, 0xd4c2f8cb4b0905e3U, 0x11f813300d55f1e5U,
  0xfd22b1e8662dfc25U, 0x112af6ac4719bafbU, 0x2dc282d58f4ccefU, 0xbcf7dfb7c6c515edU,
  0x17f028dc04be26eaU, 0x4dfff439f43aec2dU, 0xb50cbf1e311e01e7U, 0xbb1025f7294007fcU,
  0x361bceb5a6f5f204U, 0xdbfef315042cf7fdU, 0x1c10ee1cd1d9fbd6U, 0xf9c10d3b1145c143U,
  0xce0bccc9fb26d0c1U, 0xead4cd9c13f11e17U, 0xcfe015c3da03e718U, 0xd4393dbb04eadde5U,
  0xd5d5b628a6fad542U, 0xc01ccc2c07fa33f3U, 0xb8a2d3e7e82e0430U, 0x54f1e83ddcfde910U,
  0xf19644c219d9e6c5U, 0xd30e4ade12021624U, 0xf236de4aef004b27U, 0xfc154bd9472e3a0fU,
  0xcf1821f4f4092de4U, 0xfed5c5cf01cfcff5U, 0xfdf8082d1fe9c144U, 0x528f2d5f6cc24fdU,
  0x1fc40e4024e0e9d4U, 0xd0cd1906bfc0f7e3U, 0x608c404e7f741ceU, 0x26f8f8cd0a4bedcaU,
  0x2fb0c5c4fdd3d917U, 0xecc9c420e2152018U, 0x7aad7ec37d71b3eU, 0xbb163604d0e82a14U,
  0xfd14f0f9ceb4d1faU, 0x14ebe4d10517fb02U, 0x1432ce1b95ad0619U, 0xf7f1ac01d5fd1dcfU,
  0xfe18e10b1cdd3135U, 0xe906e70967f4291fU, 0x1ef2bf3b53dec4ccU, 0xf2f8f8b0f7011928U,
  0x4810edfe25e78139U, 0x924f837e41072f7U, 0xf3fd0125e704d542U, 0x1702ecbade38c5d7U,
  0x1c47e198079defacU, 0xd1f519b0fa31b244U, 0xed0df79ddc16121cU, 0xade641a8dff9c8f0U,
  0x22f5c843d3b242e7U, 0x2733b502a3f70b50U, 0x1133caaaf72b52e4U, 0x1bd5f243ce330c05U,
  0x32ace50b361f5ee4U, 0xdc370d6f9fa19c7U, 0x2dd7d2fddc5fd334U, 0xc9d5faeb3be6a8b3U,
  0xd22abffff538c1ccU, 0x25e344e50a07eaedU, 0xb52be7b01e1509U, 0xdacfcf3df6e7d9f9U,
  0x9db60ed4bcd4a68cU, 0xdc9c520919071404U, 0xec5d32a1f0a6bcd0U, 0xdd3f2cac26d1e7d0U,
  0x380cf545b8079a99U, 0xc2472725181046c3U, 0xda05381cecd1d7f0U, 0xe0ad1220463d1ddcU,
  0x432e14f0f0324628U, 0x61d72fbb39cedbcdU, 0xca4706ce58010cd6U, 0xbfba28b01d3739baU,
  0xfb38050515fae9d5U, 0x2c19b94fd2fcd00fU, 0xb3adfb8e57f09d3U, 0x3e0164d92eeac3caU,
  0xbc3c93cbb612fcefU, 0xc00c1b54f1450ff9U, 0x1b2d0db1ce25c51aU, 0xb730fb2925c6d6aeU,
  0xa47faff234ff2aabU, 0xef23f707213b27caU, 0x181cd61ff24ce300U, 0x470adc07cb3de652U,
  0x3f0bdabbe2f1fa2dU, 0x232e452304c21d23U, 0x3d2a281542cd3ac9U, 0x46d4b05a080ffd27U,
  0xe3b80e1837bfc422U, 0x6fa24d62e1ae52bU, 0x1d9c05c81c1fe6edU, 0xea01fdc900f8052fU,
  0x9cd51529d7fbeafbU, 0xf1ab0b92cc16e230U, 0xdc0a3d0633c51d1eU, 0x3ceb40441e2dfc4U,
  0xdbf3b5ed120bac1cU, 0xd134f9d9fdccb2ebU, 0x242e0015c40cafffU, 0xc3c7eedcd4af1e0fU,
  0xedfc13e22a25ba3fU, 0x32cbbe3724e21615U, 0xbe0ade0101d1f6ddU, 0xcd81adfed0f33deU,
  0xaffddbccc31cf115U, 0x2bc5e1ccfbbedbfeU, 0x1935e6e5b8a4eecbU, 0xb53fce12d9c1d2f5U,
  0x330ae3d2a82b255aU, 0x430eaea71afc2fd0U, 0xec33627f9393016U, 0xcbe516e3ef10d4e6U,
  0xb80a0f16b5147f1aU, 0x1e1ee503eadbe2b5U, 0xfd1a1fb9af221003U, 0xad011ffc1ba2fee0U,
  0xca2941df09bf295aU, 0x5dbf71351bd11b5U, 0xdf0b4106ad0dc50eU, 0xd918ecbab30031c8U,
  0xfe1fdd9073bf4f8U, 0xd5f9d0e5ffb31e34U, 0x1a101a6dff311e0U, 0x39c600322cc4c311U,
  0xf82519f32f0a1aeaU, 0x11ee7f52f531c612U, 0x34083a4335e9b916U, 0xce27fbf13b01550bU,
  0x1e133923e6e918feU, 0x16ec328b3d1f3fd1U, 0x9ba79f9ac652ea15U, 0xd1c34dd5dbe398f4U,
  0xd0d0de1406b7473cU, 0xda183741eb1dfad8U, 0x16b5fd350aca4031U, 0xcff7ea3d1041540dU,
  0xf7d540d25923d00cU, 0xbffe37d534c11b52U, 0x1336ec2354e2441eU, 0x3dc23cc1dce94adaU,
  0x2eddd711be1e2ceaU, 0xe3b1f54711c9c6e1U, 0x24f83613bec0ed00U, 0x1be33633b9423fb4U,
  0xc7c71bfbdb0729d2U, 0xbb0bdcd4d1113222U, 0xf6222de8389dbfedU, 0xbbf84e21d2083539U,
  0xceddf3e21536d9d9U, 0xc30fb02f483317e6U, 0xd1a81b2ceebf3727U, 0xcb88b9bdc5c4fa28U,
  0xd798d02bf9ecfbffU, 0xf12e3a0b5e820cdU, 0xf5dfb3fa1af5263bU, 0x3de6eeb114f425d4U,
  0xcc07e9f3e41ce6bbU, 0xe5df2244e2f6c930U, 0xb132dd30efc2dbc7U, 0xa626eedeca330c01U,
  0x103ee724f913a52bU, 0x9c17eae009e92f24U, 0xbcfb0d29a21a4146U, 0xc3ebd5e2e813de5dU,
  0xd638c3ffa7cbcb0cU, 0xcff1ed14f94f2016U, 0x1a4a13a31e300cbcU, 0x903d1f4fac96007U,
  0x32c3131ce83f4991U, 0x24ccedff151bde16U, 0xdb172b2a42001cf4U, 0xd3bd36ccce23f3bcU,
  0xcdb6c71b160700b5U, 0x14dc4c1772cc08caU, 0x492ae6b8b818d42bU, 0xead2c8de17e6fd38U,
  0x163e2541f4abdda3U, 0xce26c6601fb2eedfU, 0xce016f03b02c724U, 0xcf4ebd2c80d26e6U,
  0x212106fe37f6d420U, 0xc2f52bdee5024329U, 0xf2db12cb0c4e0b3dU, 0xa14d1c1e4bed9f3U,
  0xdc7f11204c25e5c6U, 0x2dc9023be61bb1c2U, 0xd147c81806f131d9U, 0x1ef446c90ccfceU,
  0xee1bc104dafb4d08U, 0xdc2cc130e0e72d34U, 0xc31ff5ccc30d35c6U, 0xd6f8bdf5cfedf43dU,
  0xb53e14e5e33217edU, 0x4c0f18191a131dadU, 0x10ee40c6eff8cf3cU, 0xdfc42227f00cd534U,
  0xfb24b8f7aade22ddU, 0x36242adbd808fdf6U, 0x35f6bcb401fed825U, 0x43cd1c194b072811U,
  0x8522c1bf835e0b7U, 0xdf0d1df1af1b4e14U, 0xf0ff1f38dc103b39U, 0xe0d3352ef7dff2e7U,
  0x133116f60fde11d5U, 0xffcae9d517283b09U, 0xf608f831cc3c2413U, 0xdb33f8fa25c9eec9U,
  0x2ffa00211dedf10dU, 0x1d21051deaed18f2U, 0xe87fcafd25020e0eU, 0xddef362bff490316U,
  0xd140e3fb4ecf7227U, 0x17fd05cdffcdd5f5U, 0xcdcce1eaf4f128ebU, 0x11ea3ae0a80a09cdU,
  0x2f0f2ff728bff008U, 0x3edbe931e7d0beecU, 0xef4dd008351708cbU, 0xe624e425ca33c1cdU,
  0x2bf0c82e3fb1280aU, 0xe7d42bbb1ce9f420U, 0xc60d0be423fdd6d2U, 0xe91edac1dfdfbff2U,
  0xe413d624cfd80bebU, 0xd8dcd2102006e7d3U, 0x40c2928cd02ccc2U, 0x1dbee34d2a27f7ccU,
  0x70e18e418c90323U, 0x1ff5e1f43d1d21cfU, 0x131a1af71a020adeU, 0x1f23ddce33efdc17U,
  0x1611c4aac1fdeaccU, 0xcee3022d120a3a23U, 0xf224ec0220d5d91cU, 0xdf42d390e701bc5U,
  0xe090af82cd44ff7U, 0x2ecbd218120cd606U, 0xf60e17d3f4fcf327U, 0xb044f4dfec29c8e5U,
  0xeb0ae0efd0c5d72bU, 0x3ef82cc103f6c3fcU, 0x13dd5c91cf1f7cfU, 0xe3f928092b1ce0c1U,
  0xe1d9f50c1bb2f736U, 0xf4e5efe6f5cdc017U, 0xf2e72c0915221c41U, 0x3e2ad715cced18c5U,
  0x40b2f4de04eb1618U, 0x12ab0ecaf90bd2e1U, 0x372dc13a12380a17U, 0xeb1eebf51a2f32ebU,
  0x21b112f9021dd82aU, 0x3712cac3c8ebeecfU, 0x25062039c512023fU, 0xd43b05e8f9d0d119U,
  0xd615c024b0407f0eU, 0xcf17c9f024d7be0eU, 0xafb85232bb1d1f5U, 0xfe03210a340d42b7U,
  0x24291e050b311d2fU, 0x1de6f7efe112ebc2U, 0xd4e40eba2d11ecafU, 0xcff0efff3bc8e04cU,
  0xcccdc7e821284101U, 0xc9f61bb8492f39d4U, 0xd1d7d4d11804e419U, 0xebf4ad332fce06adU,
  0xffd21ccbfd2c07d0U, 0x2448e230fc0428beU, 0xf4c6d2a715f535fdU, 0xf51fb2bdd919fdf7U,
  0xd148e9f6d2e429dbU, 0x34a32e15bd08f430U, 0x1331fd03171d03ffU, 0x5f0a12b34cec312U,
  0xc604200f1202b1feU, 0xae4c3d8c308d1eaU, 0xc6c500e7e6d510c8U, 0xe9dab6200e1ce03bU,
  0x1ae6f3e30b37a99bU, 0x301be3fc2c24dffaU, 0xebfcce2e082b0212U, 0xea1cb53bfde4063aU,
  0x3502f268fc474313U, 0x471439e903052a18U, 0xe502f93b16bef911U, 0xfbd121f30aedf914U,
  0xdf32147ffdf1f9f5U, 0x6332f902f2e6cc0dU, 0xd5ff32bd3adee533U, 0xd6c60d381b01ecbeU,
  0x1ddb4825bec52043U, 0xc00cc312f1f8c1d0U, 0xf2ed291a11d7dcebU, 0xbd1e170de0c22a0eU,
  0xbf4ce7313db0210U, 0xd3ecbbf0d0d65627U, 0xd619bdad5d2c16c3U, 0xc7e930221321362eU,
  0xcfb9440516261ad7U, 0xc0e13bd20b9e13a3U, 0xe1c6f804cc0201f5U, 0x12c224f816f7f322U,
  0xd6ffc6ec1e3820feU, 0xb0e319ccd928600eU, 0xc537e4040fc9b3beU, 0x8dcbca57e3b3f827U,
  0x1ba3ea593316ebb4U, 0x161c9b2cc30bc7a2U, 0xc8edc7d71619ca13U, 0xefcff9f63d140a0aU,
  0x37e4d41ed1d7cfe0U, 0xd4fac4c9ea0979ebU, 0xc4dff50c5007fde3U, 0xa0d4dd33c41d1a07U,
  0xf0f016173404f034U, 0xf513fa2269252512U, 0xc2fe0cd50ff50cd3U, 0x2bc5211ed805f92cU,
  0x2e1ec4ed0519fa33U, 0xfab5d43c23ec242aU, 0xad08d3d44801c9e2U, 0xdcd1c067cdfbdbdfU,
  0xe4ecd2eeeac6dddaU, 0x11ab15e8fed81604U, 0x11f9de0cc7fe3559U, 0xbd9020faf31255f0U,
  0x27abd0de3139ca1cU, 0xf2b9eedfc637d534U, 0x1807dcf9c9520ff9U, 0xd4c7f3f02fd8d616U,
  0xd1142db2f525e230U, 0xced2e60bc650e116U, 0xc5345acef509d714U, 0xcab0e40a32b7ce16U,
  0xeed21e16c20a25d8U, 0xf1f616a329fd050dU, 0x11caf2d435e8fe4dU, 0xe8f64bdde7c03705U,
  0x4f22bac01fd0ca22U, 0x18e41c070411e7e2U, 0xdc94913fdb7f8d9U, 0x1abca947fc2ff2cbU,
  0xf5b21e371c1c021eU, 0xcc0c3cc528eebd30U, 0x9bbc606cad9aae6U, 0xbc8ddf0bada22a1U,
  0xbbb630e6002324ecU, 0xf5a794061908f117U, 0x1ce959033407f8e5U, 0xcdbd6655e41213dfU,
  0xaeff17cf2cfa43eaU, 0xc936ea97501b3f0dU, 0xcee4d616f0fbb304U, 0xd1e0ddc3f1c42cb7U,
  0xbf12fec3e6d9b629U, 0xffdbe4c3050c0b0bU, 0x36f67f5311102be0U, 0xf6aadce9f8d81d18U,
  0x2ca818ebd6e1e026U, 0x837e5e6ddc00de3U, 0x14e4f50a4745b5d7U, 0xb1fff8e21ed741bcU,
  0xdee8001ee8f6ccd4U, 0xe9c509dc39d92027U, 0xbf3210b5c22dcb25U, 0x3007e9b8d70f1bd7U,
  0xc0d1d7dffeb9eaa8U, 0xd7c2d2c2e645299dU, 0x50f0b21eb163c3dU, 0x3c13a5e9ca0009e2U,
  0xcf27f715020fc712U, 0x2a28f1fec80ce2ceU, 0x43cebf738fb22d8U, 0x32045b1e2e18e0e4U,
  0x19b5370be6f52ff5U, 0x32363ee4fcf70a23U, 0xb721fe3e1d36e92fU, 0x2f30a0bdcf00ed8U,
  0xeb19f3f511f2ecfaU, 0x2eee21ea083de006U, 0x382475131c0e020dU, 0x3423b9a2eb3aba0bU,
  0xc942ab6e6b6f4faU, 0xc3dd2ee3d61f1602U, 0xf1d7c11015b3f910U, 0x8ef9a0024814807U,
  0xfddfdaf333f0cddaU, 0x50e82edd20f41542U, 0x3943edfe2c3b07ecU, 0xa49d6a0d3c7e43bU,
  0x4ac4ebae3df932e4U, 0x3401040bd9d70c1aU, 0x12421b1e0adb00dbU, 0xe0b4b7e51dd1e1f6U,
  0xeafed6f7d000e008U, 0x4a40af25ecf3d22aU, 0x1ed1e55b4c2fbaeaU, 0xef4dcb617cad1f5U,
  0x18eddaf8ceeff20cU, 0x33dcadd7e30b3926U, 0xef32c6b7370214c6U, 0xcadeeff2e00ffa8aU,
  0xbb40d2bd5e5e7eaU, 0x483606f4c20bf3d8U, 0x16aab88f03ee01a0U, 0x3eccdd2b31fedb18U,
  0xdbf91027cecf2e9eU, 0xb91dbf04301dd417U, 0xded68f1f08171acbU, 0xb728a9b83b2ce1e4U,
  0xe8ed10058b0830dcU, 0x384088adf888a32fU, 0xce083d644c3f693U, 0xdb04b4efaf3dd19dU,
  0x52ea515fa0425d4U, 0xf5a7a72fb9ef2088U, 0xa9291cc6ebc5b7d9U, 0xaaecd7bade3717c1U,
  0x5df48012c4dfa01U, 0xc5340a30ca323196U, 0xc344fbfbbe4e2e45U, 0x20dd4e16e528f6a2U,
  0x267fe1eef8d428f1U, 0x5109dde2f6b42099U, 0xd02e8c4e4327f7feU, 0xdc2914480fd51bdcU,
  0x242a1b2319412d8bU, 0x1221ab6d072cd020U, 0xb2e6befb3eb6edeaU, 0x1e6d49335f01a5cfU,
  0xd5b047f4a9c6a8a4U, 0xf4be48a6f2cd00c3U, 0x4a2e60c454bfe50cU, 0x2e1d3a5d57f4d5b4U,
  0x2645e35d45090611U, 0x1ce1d0e3d627d0c8U, 0xcf56ea2fdcf42c26U, 0x1be7bafc19bca8f9U,
  0x27ff51e2a07d73cU, 0x733136e36142226U, 0xdd3b5ce6333fcd2bU, 0x33f4e2253642ab76U,
  0xbf15bbb484044a9bU, 0xb2f2bc46b10acd39U, 0x1c1211d4b35ad528U, 0xcd3e2ff12ebbd219U,
  0x3ed510f549150a16U, 0xa8c0b9d2f6f93518U, 0x37dadf10daefb9e0U, 0x2e4dd5f9b5b3b2b4U,
  0xd22df39db026b1aU, 0x20ad25fb3c55bdddU, 0xd7f6d2b4bb1f0738U, 0x28013f175cd756d0U,
  0xea3104eac1386bb5U, 0xd023b1c647f3fb58U, 0xe6d7dcd5ade5bfa4U, 0x4d45cd084c5f09dbU,
  0x3e0105d8eceb09e7U, 0x1a16e5b0b014a4f8U, 0x2ee0ae11cc1b38e5U, 0xdfe7fbe8ae3bb8e4U,
  0xcb0b45b6dbbc260dU, 0xba5ac6abe24a3845U, 0xebc5a30d326e3d4U, 0xfa02396843b3ba01U,
  0x31289545cf2133cdU, 0xe924cc5c35ca1830U, 0xbdb91ed7d7ed37ffU, 0x2f52102d200ce00U,
  0x2316224f2048875fU, 0xb42af18e283cbf3eU, 0xdeae170e7321cd11U, 0xc04c4300e2a4c40aU,
  0x5b501efb23f9443fU, 0x8ef0c4bbec9372dU, 0x18f481bcc03ce49eU, 0x14f61cfe4446f52eU,
  0xd7f6163bbb52dd68U, 0x46afada17efe2b45U, 0x1d53fdccf7fda13cU, 0xc53ef0406004e219U,
  0x3ceb0adfaf0642e4U, 0x14f7ff21f00f27c1U, 0x5eac3ba1133f829U, 0x1022fdcee1e3e303U,
  0x301d94af8d9cbd7U, 0xfc0611a2a8d91ee8U, 0xecb42319ba281121U, 0xbf3d351ed2e2a104U,
  0xf82a3017aa29cd02U, 0xe4bdd7be98efc0e0U, 0xf5aafe8fd137cf09U, 0x25fdcde204d01c22U,
  0x4fa372947cddc97U, 0xcd15f717b2fbece7U, 0x4600e6d6fd28011fU, 0xc23b321dd329f716U,
  0x13cbe22ddcf108cbU, 0xec0815e8ef45f804U, 0x6f056eae829e5ebU, 0x2201f8bee9b9f0faU,
  0x1ccbff09ce99c4f9U, 0xce384adef9fb8109U, 0xe14a05ccd1ea361cU, 0x3cee9c4fc0712d0U,
  0xf223bf3440d9132dU, 0xabcf04fe20d4e81aU, 0x508e1e3535d932c3U, 0xd1d00f9ffe9f0f5U,
  0x8a5f6e5eadff23cU, 0x939241bf5cbe8ceU, 0x26f6e9d018c7d3c1U, 0x29ba01e1e2ca3698U,
  0xd685d0fa3bf7c13fU, 0x173ebffc44f2ead0U, 0xd9ca2323081628e0U, 0x7ca23dd402bc321U,
  0xd7a003a906081c45U, 0xd3cb0c8da3c1bf6U, 0xebdaa2080ed5cc09U, 0x12ca30d1fabe07eeU,
  0x2229e34847040ec3U, 0xeccee9ee0ce2f7ceU, 0xd2dcd01ba7eb0be6U, 0xf92d18ebd3070c2aU,
  0x37ee25d8e1dcee21U, 0xc1f9d53ce6ef0202U, 0x16e80c18dcfcf3b9U, 0xf228ecc9f130e30aU,
  0xe129d02e1bfdd225U, 0x1fcb131827c9fa03U, 0xd7e5cdfed1bc02a9U, 0xc21e1a19c1ce12bbU,
  0x19cd0ab6f4fb13f5U, 0x34c4bbb60c03c80aU, 0xdb47cefbd625cebfU, 0xfbe1faf10525b7e3U,
  0x2cefbc0afccbde00U, 0xf5fc353837310831U, 0xe301172f1cd8f6ceU, 0xd3ebf12251d52c01U,
  0xe71ff8f317440303U, 0xcfbfb81e7f20ffeU, 0xb4bd805bcd7e3d1U, 0xc27311c2e1ac105U,
  0xbb134024e9d302f4U, 0xc6ccd74832101cf6U, 0xc8eb9620f43c194dU, 0xddeee0fc2cde34cdU,
  0x39bdd3ee4204162fU, 0xdd04e4390ed6ed39U, 0xfbf50d36d307d41dU, 0xd31807ebd26c2819U,
  0x2c21e4ead8cf45e1U, 0x22f626e3d4de23e2U, 0xaa08f2c50b00e42dU, 0xb123edf6ea30f313U,
  0xf37d7fa14e1b8f4U, 0x28c4c7f3180cb920U, 0x2a4a20cb3cb22128U, 0xe7d4ef343fd71b1dU,
  0xdaf91c14232ee2feU, 0x5534fbff1ae7e2d5U, 0x522cdef71b0af309U, 0xed2b1db205bc331fU,
  0xfb4e12ecf0253df0U, 0x64d1d01fcdc0a23U, 0xc81cf21ee2e7ce2fU, 0x42f0c20cfc3cc7c7U,
  0x1fb510d6b00e17bfU, 0x26e7d11008391c22U, 0xcd501c8115ee1616U, 0xdf06dec947dcc4fdU,
  0xede5f0ffbe42150bU, 0xdfe5dfdce00d27c2U, 0x1be74f37c5e1db11U, 0x3a27f6c328f8ae1fU,
  0x9033c44b2002018U, 0xdf27d5efe8cb2fe5U, 0xe3f6dfa9061cef24U, 0x350cdaff232ae002U,
  0xebfe37d9eec6c320U, 0x10f8193acb04baebU, 0xec0d431becc0e5f0U, 0xddb73cc637e91cf8U,
  0x43f3c9f6ccf427bfU, 0x1126eb39fa07e012U, 0xfcfecc191d233cceU, 0x512a18174c143accU,
  0x43d32fdf13e70febU, 0x345314f92de4b104U, 0xf5dc27e4042a3737U, 0x2d223ac0cb140012U,
  0xdcd1071796ca2bbbU, 0x362e4d000116f037U, 0xecedeffae03422b8U, 0xecf953d9bfd922f1U,
  0x1147e9afddfd1cfeU, 0x1620fbf2ca0511d5U, 0xde18f5bccc1422b9U, 0xcff2193dd828d733U,
  0xf724a7c1e3b54809U, 0x24c05dd9203329c8U, 0xf216dab32db01f1cU, 0xcd35c4d21f1103c4U,
  0x1fecb93614a5deb5U, 0xfdf64525e7cd181eU, 0x292bf0c6db31c52fU, 0xdeeba1d106620bdeU,
  0xeb51fec18a70ea3U, 0xfbfad11b302c2814U, 0xb62adc911021b700U, 0xbfd894d5b2d7f4d5U,
  0x107f1dfaf5a6d29cU, 0xc9181ef11db4b21aU, 0xc4f91ca3de01c41aU, 0x1ab4fdcbc6ea0fbcU,
  0xc70d23e03249e0dcU, 0x401d30f5072e25cfU, 0xcec7d7cc2e20fec3U, 0xfcfa5221022b0300U,
  0x1b441f35e71040aeU, 0xef0fcbc71ac400bdU, 0xf3fffe00e743daa5U, 0x37d31d54fd3539f7U,
  0xc43217ebd746cf00U, 0x3eb9500464303c3dU, 0x36a4d4c6d6ae0b25U, 0x342907dff0ee0c0fU,
  0xaac3ea02b201f9ddU, 0x401b38d03aef1d39U, 0x4eb44d0471e1db9U, 0x37ff0128d63d0cc8U,
  0x11d7c62dfd17e818U, 0xc7f2291ce000d410U, 0xf3a0abef6d11703U, 0xe2d93b083c3907c5U,
  0x295215cec1c4fbcfU, 0x3ed033470c4a4323U, 0x2cd1e1f61a07fac1U, 0x18f05e13ffef35ecU,
  0x2ffbedc33d4c6aadU, 0xfd001dde48191401U, 0x88d9d221d3d2ca3bU, 0x35cbf1404c513facU,
  0x63baf04b4ddde826U, 0xe290f279efeec394U, 0x236ad50eb69ac601U, 0xc720d9f4b24ffc9bU,
  0x232d3ed6b7d357ffU, 0x61a454d8b013c4efU, 0xf9dc8fda4f5fb0cU, 0x3153d0c3db1c4f42U,
  0xcd9b7bbb025379bU, 0xa30fb5ddedd8db0eU, 0x1d3af2f1d505f3cdU, 0xfa400f192008d1ebU,
  0xcb15e70bce301726U, 0xad1757f6e3d02e0fU, 0x352526c1a5fa0b49U, 0x191eafd42ac9eb34U,
  0xcefde7bfce24f90aU, 0xbefd4c223945dd20U, 0x3423c8405b4ba50cU, 0xb1e0422cdbdac522U,
  0xddd1f6fa363b0cf4U, 0x150eb7490049fe3eU, 0x1f26d5a0fa2ac343U, 0xdfe3eee8b42618a1U,
  0xab3630e8c5ff9db1U, 0x3b0ef97f2ad5e228U, 0x917b71b260a333cU, 0x10d0f2820dcab831U,
  0x140e10087b0244dcU, 0xd03ad8d84006e221U, 0xcd34a9a5bbb6f1a3U, 0xe5e50418cf0bee09U,
  0x49210bed344e368aU, 0x19ec28442e30c6e6U, 0xb50dc7b66d2f23a1U, 0xf138450a0806a822U,
  0x4ce333aa04dadb2fU, 0xeed13c0fd2060ee4U, 0xcc1a12011b2afbb3U, 0xf43207ce2ed538e3U,
  0x44ddb33b01fe220dU, 0x1cda16fef80d5210U, 0x42f1adcef6060622U, 0xd02b31d91239c932U,
  0xff241981ead6c4e1U, 0x2c0c30d328b50d3fU, 0x44a71b2eec98074bU, 0xf016a0fd45333500U,
  0xc0bbd2c43f8e4e3U, 0x9d41bfa0ed19ec46U, 0x25d31da440d105U, 0xd3bfb129daf502f2U,
  0xcfdbe9193af14efU, 0x62306f0004efde5U, 0x27fcc65b0fce4e4eU, 0xfefbd313623dc34U,
  0xadc1f3e5b43cdd36U, 0x9455c9b84ae5084aU, 0xe17be41e74c37dcU, 0x27ab3a980451d6f5U,
  0x35c913bde21e25deU, 0xd422c71e00f3bdafU, 0xa02dcffa25bbc3ddU, 0x24abca0a1dfb249fU,
  0x26b4d4300bfb31fcU, 0xba1aee01c4110003U, 0x2639fbf40dd81a33U, 0x12ebb5e3ed8d4bd8U,
  0x4dc0eae6d11ce369U, 0x7d32b4d71db2c1bU, 0x92a21517abe91515U, 0xeffaf5f6ab3117d2U,
  0xc6d231c5e9fddc33U, 0x22b2fc224a19b7ebU, 0xd5e206ff97f71afdU, 0xf2270edfbaa3f320U,
  0xe9a9f4c026d1f128U, 0x2d2cfa5dcfb40403U, 0x1fcf00b9d0113c1bU, 0x322be51e11172d4aU,
  0x1c3943e2103fd2b5U, 0xff21abbdbc1ce4fdU, 0x43b5e01698fe4b1cU, 0xf2119cab8eb321bU,
  0xb4dbcc8db4180aebU, 0xbf6e52db9a61fbbU, 0x22ab18bbdcc130c2U, 0xe114d4da14ce36efU,
  0x3e863020370fe1aeU, 0x2cd2c9f01fe0cdc4U, 0xc912242e10be2754U, 0x49e138d3baac36afU,
  0xb5eab2f7b6fcfc19U, 0x10aebe162cf1cefaU, 0xa30bc3e7e2d03a2aU, 0xd7c6a8dacb0cb2d5U,
  0x6f1c41734b10dacU, 0xc6a0d3a31b063feeU, 0x15a3dceb35fef8f8U, 0xdad92d02b9470fd9U,
  0xdc1ad4f5f0adfcdfU, 0xd51beb0c2839ed4bU, 0x16ca3035b2063203U, 0x2106cce20df00508U,
  0xa233ce15c3e0b806U, 0x3fb00681eabd0cf6U, 0x480ff4e0fb233720U, 0xfacd4f2cbce120e4U,
  0x12bb16aa041badceU, 0x4710189508efefe2U, 0xd316131534c91edbU, 0x45d9ee63af3bafdfU,
  0x17d1ff26abd9f95cU, 0xc838062cd40300b3U, 0x43e5e82219f31fccU, 0x1004e63644e8bbfdU,
  0x39e437d7ddf0e4d5U, 0x26e3182bdb40132cU, 0x31d39fe41500d5bdU, 0xe90b1bd5f73fafd3U,
  0x197fe11ef11bf41fU, 0xe02239e4d7f855d1U, 0x1e48f6f4f243e1d1U, 0xfc31162df901bcd5U,
  0xd0a0fdcfc12301eU, 0x4636f7c5e7274545U, 0xe52da111b7ef2c07U, 0x1b5b0a1d1833f0d1U,
  0x4c60d3f1bec14faU, 0x42e60e20271dcde7U, 0x2231eff1731e6b5U, 0xccd1fedbe345fac8U,
  0xb937cea8c3d700e0U, 0x1f0bb9f9ddcc04ffU, 0xf7c2dbcee72513c9U, 0xe418e0269f1bd4b5U,
  0x21f8320033b2f527U, 0x35460a1edafef506U, 0xede218d10f1701f3U, 0xd71b26313538c00aU,
  0xea4ddcbb3c1314e7U, 0x507fd2b2ad0e6ddU, 0xe201b22cec18edccU, 0xdb2ec733fecc23e9U,
  0x1856190ae218f33bU, 0xbb1702fec60224f2U, 0x10d00008f1e8ba0dU, 0xc9020e6acefe01e9U,
  0xdcd4fbff0309fcU, 0x2a1d422a1ec2ded1U, 0x35f8b9e03017db34U, 0xce0e213e0ac62111U,
  0x5420cc02612e005U, 0xf8ea0a23ea18dedbU, 0x2202edf1f33ef128U, 0x94bec63b1b1f1a37U,
  0xf9c5a81afd08d602U, 0xddca191454b335e6U, 0xd131af20def70cd1U, 0xf914f2facb26e3f7U,
  0xf23eb70f011129f2U, 0x22e6f2f0be2bf5f7U, 0xcbcf3d02f6e7ded7U, 0x130407dc0527dbf1U,
  0x38eff93839e1e944U, 0x6d10fbf12ca08U, 0xe3bcbbda22ed3bd0U, 0x47e8d600c7fa29c0U,
  0x43d6c33eb9edbc27U, 0xfdfcd91cc257fde9U, 0xc5d51fe554c3fb26U, 0xf2e8f2eb01010107U,
  0x1fe3033e072cde03U, 0x9244c2c2ce00bc4U, 0x119e070aeddccee1U, 0x4dea003ddf5e1ceU,
  0xf9d0f8ccf8d19411U, 0xd7c00f94ff02170fU, 0xd3c6481f3dddc6e1U, 0xee2124a5d6bcb726U,
  0xfd47bcc8cf0a1068U, 0xc5ceba33d7d809a9U, 0xaff7d82ac7f1d8f6U, 0x22ba29481d03fddaU,
  0x340517321f1b4ce3U, 0xe40b0d3147ef36e3U, 0xdc23941566520cfU, 0x25f424d4f1e2171cU,
  0xcff5cbd7cabab13cU, 0x5e63c2de7a12addU, 0xb91012cbdfdccad3U, 0xcfd9300bea1ef9c6U,
  0x3819b6e8bb2ac2f2U, 0x28fcaec718fb15ffU, 0xd18131e1efbdab01U, 0xa0bd50beb38e734U,
  0xd8fa3b5e43d73f21U, 0xf73dc5dffc4a39f1U, 0x90fe2393d2ed6ebU, 0xea1241002cca2e33U,
  0xccecba0819d0c5d2U, 0xfdd8bb20d702f945U, 0xbe3f0a09e511f3dcU, 0x23e3d05402490307U,
  0xede90733c9ad32a6U, 0x31d03f24f70c01b6U, 0xaa43c0e6e9f031d2U, 0x1e49f0ba3dc2f376U,
  0xeb494594d70c08e1U, 0xf7270fc310366895U, 0xb1122829f4e2371aU, 0xd73b15143e51ed14U,
  0xeb29bb90f2e1ceb6U, 0xe540364df9ac36c5U, 0xfde5f82045bef1e4U, 0x2ad012bbc8e160d1U,
  0x7f332a06331393fdU, 0xba9aebf99ed1d353U, 0x4d8511d37e8ffd7U, 0x2be32c0bfc501bb1U,
  0x8d57effd1cf3f70dU, 0xd903dff916e534f5U, 0xc3b6c92117b30310U, 0x2406eae5b2ad55f0U,
  0x2ec22fd6d0f739f1U, 0x31ed1af3dbbd058fU, 0xbc3c13e122cacdf8U, 0xf61930c3310ae2b8U,
  0x14f81f1001e51ea9U, 0x92fd90b6bf535f6U, 0xf142fdfee400bbd1U, 0x416322b50bba0cd3U,
  0xdb03c78a391cd0c4U, 0x3004fd2f001be9feU, 0xbf4528f541a9d6f5U, 0xb19bcbe4f441d9d3U,
  0x1ee6ea3314df2436U, 0xd4f3331752f40f25U, 0x1e0f2d0a0c33deeeU, 0x22228eb0ffddeeaU,
  0x3601f7090a40d2U, 0x3d00165826cff634U, 0x28584de4fb2bd8e4U, 0xf3f22633d635f9f3U,
  0x14fc261f0db727c1U, 0x7fc7f310be9ede9U, 0xf622f0d02dfe1b2fU, 0x3a0fd1ec28fa0e40U,
  0xc064d7effd1638e6U, 0xc335b65fb1dea00U, 0xe10b36c72037172fU, 0xf3d9002ddde41629U,
  0x4ca0f16eee8f3d0U, 0x230d46fdf0ff4005U, 0x1b1f01c0fc14d1feU, 0xd2e72debebd42ecbU,
  0xdb09c5e7f6d9e712U, 0x2ce6e80ceff2dff0U, 0xfe2c43e021f60114U, 0x6c2ea23f7e61e2eU,
  0xd3eb2e0f09cefaceU, 0xec6dcb30fdcecc6U, 0xd5d3efce301bcf34U, 0xe190fc627f517eeU,
  0x2916fbcd0acaf5b1U, 0x4e2be937d6dcef03U, 0xf7fac7dbd34ee710U, 0xd2d7f96d0e1105caU,
  0x2c1fe9162de927a5U, 0x1afa4cfe2ddbcc13U, 0x450f0a0107e9181aU, 0xf7e7f5e22606ef0cU,
  0xf821090ef01a2ddfU, 0x2ef9fa3edff7e7e4U, 0x11bcc70eeeff2402U, 0xd1b0264fe3c82611U,
  0x1c11bc0fe5f7d4e5U, 0x9f420e3e7f5d4c9U, 0xf32a07e3181a24dcU, 0x21cc271aa8b12316U,
  0xd5eefa061b23daefU, 0xb0dbf435f3f6d3d6U, 0xdef6bfce3904b4daU, 0x62ef0c50332cbfeU,
  0x1ec5f104d3d6e6e9U, 0xd5c70de419d809d7U, 0xdebbb22d11f30e4U, 0xa72318da04ef0eb3U,
  0x26f20d42b72a34e2U, 0x12f2dcedfada2104U, 0xe2f0e70b13d5e6d5U, 0x34f6bf3f32cdf537U,
  0xc6e2dd28b9b80016U, 0xcbfec1ca01f4badaU, 0x3e312f27d21b1722U, 0x1c0cd60ec633153dU,
  0xeee61518b5b27fdeU, 0x40cac22fff2ee3e0U, 0xf90ae91d185f16deU, 0x1df3e79b42ffadbbU,
  0xd5b6cde0bd112de2U, 0xd52f0ee6b1d3fc2dU, 0xfdcdc2c02cfceafU, 0xdfbcf60ef3e411c0U,
  0xca13b506c32d3cdeU, 0xe34eca29dd1413f8U, 0xf63cd1aa3321c8efU, 0xffe90527ede6b504U,
  0xdee63afda8463a0bU, 0x3237ce20072df936U, 0xd9a9dedb1bb607e0U, 0x93a36fe20f71c1bU,
  0x18f0b7e40006010fU, 0xda3ffbf40700a5b8U, 0xd41829de742b1bceU, 0xe7bebefbde25009fU,
  0xbbf324f19fe2ecddU, 0xa6dd393843180af5U, 0x3409d429f2fcf0bcU, 0x4b24572f46c52d1bU,
  0x46c633e8dc110e2eU, 0xbee9addededac4d3U, 0x45bac84bc3f3c136U, 0xc6b238283418c62aU,
  0x9a98220cc21f202dU, 0xa41ddbc87c07ef01U, 0xe9b54dddbfc54117U, 0xba0eff13d0bbc0aeU,
  0xcf62f4bf07d6ffd6U, 0x1e08063d23f901d0U, 0x16ef0e81f42cf6cfU, 0xb8db60e3c6f41c26U,
  0xac151acb0ee209c7U, 0x7105baaf3d9c7b8U, 0xfcc0ea922c0520f0U, 0x3bcdc126d2363b29U,
  0xe9d904c5b13fb0c9U, 0x3224182d1deaf2b5U, 0xc716e1a4e8f7ee41U, 0x2ad4dfa048ffbdcdU,
  0x18c0e7e6d7f1ace5U, 0xd64bc3fcf7031113U, 0xf3f3c7f251272a35U, 0x227afdcc5cfeb2cU,
  0x39a9cb14eeb716caU, 0x34e0b1a0f6202ad4U, 0x40bdec3d26963cf2U, 0x1dd5f00521301fe3U,
  0x38352ce0caedefc1U, 0xad1de5062e2ecae0U, 0x1117f2edd034430cU, 0xb6f1a3cb3f1f45fcU,
  0xfc035d2b423ae4cU, 0x56df1d36b523a21dU, 0xc0fda6cf23fdd9c3U, 0x1fd30d2d45cbb045U,
  0xe9f50c0aff1404c5U, 0x31de0727d4abe4fdU, 0x2befdbaaf6ad0612U, 0xef12ab9f404c41d1U,
  0x20013017b8a5c101U, 0x4019f443cabfa542U, 0xc60002b22dd0d6c1U, 0xe4e52c16f1c11beaU,
  0x483cee1c101cc421U, 0x39b1770039a1f73aU, 0x2dfc1af60b02bfadU, 0x48cf9b3f9b4713adU,
  0xdac23423b82eabd7U, 0x3e3ffd24e7319c96U, 0x3e0d29e72026b4dcU, 0xc125bca2d8e0eef6U,
  0xeb1af831c614df0aU, 0x2ab3f61a4fceb9e2U, 0xdfc40718f8cbc110U, 0xbd0b32bfdfd1e2caU,
  0x8141bd0c4f26bd8U, 0xe2c43911acf50418U, 0x27e7392f080103d0U, 0x37dfd6cabe5cf6b6U,
  0xcad0163e3ca552d7U, 0x15bdc80e2a413dc2U, 0x42f6e40ce414480cU, 0x3914e647f7ac3a23U,
  0xf928370cd1f0f2ccU, 0x1a4e1804a8c788dfU, 0xed35ae13d861b439U, 0x10e8b9d1fe6aff31U,
  0xfbbeb7ff65051f29U, 0xdd9fb9157fe5c3e2U, 0xe0462eef46bfeadbU, 0xe4299addf93fe214U,
  0x2910c8e9460ad1bbU, 0xe332e153a6aac27eU, 0x26ff2be2f7bacc1bU, 0x21992f970954c859U,
  0xd64ee8c35828b10aU, 0xb5c2feb0044853f1U, 0x3dc7d126b0c03b90U, 0xb43cf74bddb2ada5U,
  0xd3238ff5c3fb2e21U, 0xb6c9f99c5a35a9d1U, 0xc3b845e9452cf2cbU, 0xd215a0c22a0f12d7U,
  0xde53673aace653ddU, 0xfcd63affe8f0e69bU, 0xb13af14945980dafU, 0xdf08ccc1e2349c1aU,
  0x27e5b2380cf2cf3eU, 0x9f936a4b605d616U, 0xa6df7f0ec7d112f7U, 0xabe2553fe35ec916U,
  0xe4d4eb5cf4e9b6f9U, 0xae2aae3416aee02aU, 0x80ff0fff114b1dbU, 0x3e0e02b9ca0cb84bU,
  0x99042705ba32aeeeU, 0x248ccab73df447c4U, 0xf011f28cc827fe03U, 0x19d02413cdbfb619U,
  0xd48b45009aa6619U, 0xa35b8fe06009d120U, 0x2e9bbacc2ab13034U, 0x2ca81ebb19c2da2dU,
  0xfcc433ecd3354aa6U, 0x18fc10f1fa2d3720U, 0xbdecc7fc91eaade3U, 0x4e1737c604943eefU,
  0x37ddcca28dda3504U, 0x1bd4a635f82be6b5U, 0xe60edb4293e72ba0U, 0xaf63b2a2825bfc3U,
  0xd6d015b6872a3a33U, 0xd1c1262b2b3fc647U, 0xd03ec2c1030d0edbU, 0xb10025c463ece19U,
  0xb518af46e83c6637U, 0xc6cbebd0f56b4710U, 0xcefcd5c5be4ce739U, 0x2bdf1298d409aea7U,
  0x1eb3e321fd914a83U, 0x41f8b3d4b244d7d5U, 0x4ac4ae11f7eb40a5U, 0x3a32a2d336c84506U,
  0x4dad3f698b0f5a3eU, 0xc8da35554316f0ecU, 0xd613e0061abcbd30U, 0x21bb2bd6f427a3ceU,
  0x9f36dd47d0ad0a2cU, 0xd90a342a103039e4U, 0xb53625de462513eaU, 0xb5ebf51728b00b0cU,
  0xc3dfedbfce9b1ab3U, 0xd2d14f73b3407ccU, 0xe7cf81a604b92ea5U, 0x41b201f71aaf0dacU,
  0x927ec3d7c90f43dcU, 0x3e51fefecae79c34U, 0x9e04eeaae212c7c9U, 0x72da4f12a4e2e24U,
  0x8daee918e92ce5d5U, 0x3550a819226e1dccU, 0xcfac182a16373ec0U, 0x3adbeceaf2b6e7d8U,
  0x2325cf07d5cc8ad1U, 0xe4282ef2df2bd1beU, 0xe011d435451a040aU, 0xbb383f17bcc78f0bU,
  0x3fc8d430fe98f3f3U, 0xb32d566816b9e6bfU, 0x403bb511a4bad9b2U, 0xdfd7269da9fbf017U,
  0xc7ad9efd8fafa35U, 0x3bc4fa3da305f6bdU, 0xa336b719bd1ad827U, 0x11a43cd6d0431a09U,
  0xbef7f1d6c4d5b9e1U, 0xcf51e9dd2412f603U, 0xecc3d23c14cef60eU, 0x10e3241fda0e14f6U,
  0xf4e218d3eb4beb47U, 0xc3b113bc0ff9ff31U, 0x35a929b9e10ebc17U, 0xf4c33b86f83b18b6U,
  0xbfe6273a1a0be934U, 0x2b03de4fdb04ca12U, 0xddf6142724091bdeU, 0xb5c74d1fbe0bed41U,
  0xaa09af2242f71d2bU, 0x4421b5cb0903af19U, 0x121d20bb0bef04f1U, 0x35db0a01dc3115e4U,
  0x151accf4ee07e8d8U, 0xf34bebbbe8152ed2U, 0x9b7b0302907eebcU, 0xd4adffc8cb07e703U,
  0xc172ac437df1a33U, 0x3ccdf2e40f1be3b9U, 0xe21222c7d4b83dd0U, 0xbbe33f438bdbdcaU,
  0xc5d9c21922f5e6b1U, 0x844ef27221629c5U, 0x1e080ee3f2d534f6U, 0x2fcd24b8eefdf13eU,
  0xf0c5b3e3dab1030dU, 0x28001ef00c0f1dcbU, 0x8da1eedc4133f38U, 0x9a202c5d6ebb015U,
  0x1951e225d9ededfcU, 0xb3c247ea16c22dfeU, 0xa00e4ddc23730d0U, 0x1020ecb241fffdd1U,
  0x1a09f23ad627bc06U, 0x2d5efa03f014fd26U, 0x2a387fcab1f0c42fU, 0x401ef9c5d7092ad5U,
  0x6063431fbbdc6f3U, 0xdd3872bdc5eec0f7U, 0x23ce2df8d507bfb8U, 0xfae02bdf244b1bffU,
  0x237fda18eef04824U, 0xf8c352cc20b4bcd3U, 0x25084ec453180708U, 0xce0df112d1ffb8e1U,
  0xc2cbf0d106d252a4U, 0xf1c9e532efcc2ff1U, 0x2c6f0fda827de02U, 0x43cafec3e0e1c4caU,
  0xc7d4e7ec2bc313dcU, 0x332fe67133cfd515U, 0xb22511e723f3efffU, 0xfd341700eadffc04U,
  0x2fc9d81d56cce602U, 0xf3e51af7f1513da9U, 0xe5ee0225c2fd080aU, 0x5d710c51cefaff4U,
  0xb94501f82d1bfcaaU, 0x5d5133ff0a2de699U, 0xdb27e1f317bacabeU, 0x41f4392f1ac4b42bU,
  0xf71321ccf5094e1aU, 0x9e328189a34f4feU, 0xfe349c12b6dd2d24U, 0xc61cedadb80b143bU,
  0xd852f939ef07f3c5U, 0x2315f2d71fc0272cU, 0xda14dbfef52fc1e0U, 0x2e0b250bfc34bb31U,
  0x2fb1bffee7b1d0beU, 0x34a4034bf6d7d721U, 0xb2d1fbf512c6eec2U, 0xf3e32ff5d9d52828U,
  0xf521bbee626b921U, 0x2e0aacf923e51934U, 0xedc83101ea3d09c8U, 0x2102c3d6c3b42cf3U,
  0xdfcadb13db0ae1eeU, 0x161dae9f3f2f5c4U, 0xc350fcb834dcbed4U, 0xb82ffd121a95381dU,
  0xd9fffd5eccea3de8U, 0x2d04222fbfbeeb44U, 0xf93508220934dad1U, 0xe8ce013e033037f4U,
  0x4216306684705cdU, 0xd1f85ebd20e0ad05U, 0x3eba1fcb21d1c1d3U, 0xf53ea2abd540c4b2U,
  0xb224de5020fdd101U, 0xbf38ee253bb4dd2dU, 0x2056bccbb0c9461eU, 0xc5c110cd1304ce31U,
  0xb040e922391e1adbU, 0xefffc4f1e8560dc2U, 0xf71720a81c490abdU, 0x4c91b27cdaa43e3U,
  0xddedfd0dfde6dfb8U, 0x6adcf6e7f9ebc50eU, 0x144220f2b4cea0eU, 0x3428ef300433b620U,
  0x5243d61e060b2fc1U, 0xe93c300d37300d4eU, 0x15d481cdc8b2c709U, 0x3015d4cc57d9b126U,
  0x13b1253220284df3U, 0x4e39cb6b0dd63632U, 0xd2e510e5150dc0e3U, 0xbb0402624741e9bbU,
  0x4006b430acfd3fc1U, 0xd3c7e9390da225d9U, 0xd959e1c4eeffb931U, 0x1af405ec03ee3026U,
  0x4d2a3903e7fdfdfbU, 0x2617efc0d41148fbU, 0x170f340de2ffabe0U, 0x18aff113f41d2f4bU,
  0xe8c790be910cd1f8U, 0x9e3723ea29cf9bU, 0xeb05c6a5e8c7e426U, 0xe4e0b29aeddad044U,
  0xada719c4fe28d3ceU, 0x31d8efbf300dbfb2U, 0xcab0d90f310422d1U, 0xeab424aedc38c442U,
  0xd2b1e02b9f27c8d1U, 0xc7178136bfcc2925U, 0x26b0daa0d6e9d0edU, 0x1f2b32a5d5a9a3ceU,
  0xd3e62511c9bdf6daU, 0xb0b73217d2cfcafbU, 0x1d2fe1afb027ebf0U, 0xe3dfb3c1080de2f2U,
  0x29d96c000d61c609U, 0xf60824b5e63d22ddU, 0xa0de1b5b742200cU, 0xce2732c607d8cca4U,
  0x3957da27283d60eaU, 0x1fb2c824031e10b3U, 0xe7610c4726343ac7U, 0xcd35b43abab0e6d5U,
  0xe7259b2737db1a1dU, 0x2bda390c5011fe18U, 0xa7c2f233e73d4ae1U, 0xf8f403e515cfbdf9U,
  0xf9d0ea1be5e48ad8U, 0xfd4f4465f4240203U, 0xaf4d15ac2f192511U, 0x23ff094418e60d15U,
  0xfee100250131c812U, 0x242a230930e34f37U, 0x9e3dba25daf904cfU, 0xc8c75436d0d0b9edU,
  0x3de4c70119e0d850U, 0xecb52fbf9f4718d8U, 0xc3f04231ddf91611U, 0xf2b19264ac8f632U,
  0xda241ed0c2241cd2U, 0xd4e9e806c83abd1cU, 0xf3db14e3f9cf2126U, 0xf9e3fd14edb61407U,
  0xfda6e20625c50eebU, 0xe50e43161c1a4bf2U, 0xe4beddb3c9562043U, 0xd23b23bada41d32dU,
  0x319ff004e1d342e1U, 0xfc17d5c9c9eb0aeaU, 0x1ad752e434b0e703U, 0x2beaaaec22ba6f4eU,
  0x4fab069d254e20f4U, 0xb0000fc002c34a1bU, 0x3debb8d314d32d1dU, 0x3a0e03bcda26ebfcU,
  0xf3af2fb645a80d18U, 0x13ad8f59a7bade01U, 0x20bd2f44ef23b74cU, 0x429ade39ea4aa5b1U,
  0x2aeee3e208c8c123U, 0xdaca23e23b1d09e0U, 0xd3bfe3c8130cf1d4U, 0xf5ac4ce948201effU,
  0x1dba31cdd306c925U, 0x9ed78ef551b4d729U, 0x8bb0c1ff118db22U, 0x47d5343bb73c31b6U,
  0xc0e7bd04cacf1238U, 0xcecfbc0af1bcf131U, 0x2cbf84bbff0cd71eU, 0x39eb25ff36202681U,
  0xe9d9caf6b53a2e5fU, 0x3dffe026eab9ad0fU, 0xccf21aad354629d8U, 0xdd9fb6f22ab9d8e1U,
  0xc93ebcc2d707e9U, 0xe609adc75bf22d43U, 0xba9636d2b5fe1bc3U, 0xddf8b22820ee20c3U,
  0x2428e6e1cf17441eU, 0x2b031fd533cedc31U, 0xa6ecd8ef42c21c04U, 0x38f837b9f3cfba11U,
  0xf3c6ad000bd3e8c0U, 0xcb3d42dccfedff30U, 0x2fdacbc5e11b25b6U, 0xf4102013a30a26e6U,
  0xbeee8dae1fe39e1U, 0xf0fb16eff30f083bU, 0xd6e9dfcd21a82abcU, 0xe5e0dfd42afbe306U,
  0xcdc314acec49c4c6U, 0xcb30c4eacc42e83fU, 0x4a123c3c2232ae5U, 0x1d29e20ed6f4efe7U,
  0x1737fcc3b6e325caU, 0xb6b3d617dcd7b127U, 0xf7ad8bf3811cd50eU, 0x1116270819e32ba5U,
  0x57d5dd3f4bcec90eU, 0xb9bbd73033cba8abU, 0x48f510402df72bfdU, 0x2b0453e61110e7e6U,
  0x12f223c2d24f16dfU, 0xe613b81cf01ee902U, 0xec3debb030909efU, 0xb5b6c000c2c3fe17U,
  0xa3e42f1fb6fcdbf8U, 0xde1b5304ddff437U, 0x742bdbf580bcda6U, 0xed15e2e1ba57bb0dU,
  0x533f30d08297140U, 0xf3fa27f52403d6f0U, 0x1235eec4a3fced20U, 0x929f9281d11b4fdU,
  0x1f0b04e620f6b2d5U, 0x1117ecfa14257ff0U, 0x2afa1eead4d6d5c0U, 0xbbaffe1b8d22e21U,
  0xc0292443a6ead0a7U, 0xe0c20d1b7cf3ff9U, 0xbafee0270f643f11U, 0xd7030e210a0434f4U,
  0x41ec1dca311df3a0U, 0xe8eb542fbd0a20bfU, 0x2d04bb26f3f6f505U, 0x3612b5159de5e29cU,
  0xc2fbeb36c72632f3U, 0xf2aee2eb06d4c939U, 0x2ccfc132ae3c4d3U, 0xfbd1f818c8e7a6f1U,
  0xf7d43bf5e1a90408U, 0x385e342a083810c4U, 0xe136fdaaf1e2c116U, 0x11130410cb3f303aU,
  0x2acaf6b9c003eb2bU, 0xc330ca27a61cb7fbU, 0xe9cf400f31ae1600U, 0xc4ac1d0ebf0db9ccU,
  0x1548f9a2c99bfb1dU, 0xcee6b4dee4f3caeeU, 0xf2cc08eefea439dfU, 0x2a2c3b8c83b35ebU,
  0xfc40ec2df1e538f8U, 0xffc2ac29e51909e8U, 0x5ef9392edbb51e0cU, 0x33951616f24305d5U,
  0x2311bbb8c80d0dfbU, 0xc1cff811da0c09dfU, 0x1b162fbe3f25d0bcU, 0xebe0092132dfcedfU,
  0xc0a516b71aadda92U, 0xda9bc60bcc00bcfaU, 0xdd2e2fd6befdbf94U, 0xd9fdaad50ed1fc02U,
  0xacdaddd7321881c2U, 0xe1eac90eab0a0be9U, 0xc01df23129b834e2U, 0xc6a4f4079b031211U,
  0xe20f62cdaaa4ff5U, 0x2517421941dee3d2U, 0xd5cfd152c2feca2eU, 0x3dfa37079cc1f71bU,
  0x315233cc1236cc0eU, 0xb1e7f419f6042f1cU, 0x380b1e1f7b38d4e7U, 0x13cb04de2b24fedeU,
  0x3c2ee528d5da4347U, 0xf358f4cd11dfade3U, 0xaf15edd61a18fdf9U, 0x47f3ebcfe835d910U,
  0xc625dcefb4a223e4U, 0xf9fcc7dfaa2207cbU, 0xd92517aa61e4e617U, 0xe9f0ae25da40fffbU,
  0x1afa6bf3ff3e827U, 0xe526e324ffab0bd4U, 0xdcdbe42e17a641bbU, 0x260baeb03716bd31U,
  0x4256182bb2323636U, 0xdb2335d6a7fbb52aU, 0xacf4250923efedcaU, 0x11da03e3db59cad1U,
  0xb6e5c2dc24a2345bU, 0xde1240812f1e2620U, 0x22aeb32212b7b703U, 0xf12703b6e3e8bc22U,
  0x59e9ba3bf83ac706U, 0x40e1eb26c5aa20b1U, 0xfcd5f8fc243d38a7U, 0xd7e1451a214adcc2U,
  0xff931226281e290eU, 0xf346e8a4051cd5c8U, 0x22bb1f5eeb0da99U, 0xe1f2fbf2d12a4828U,
  0xd7532a0527a49f9dU, 0xe22f1f17d8c23ab0U, 0x21e3a0d520c1cca7U, 0x29c600ecfaf0f5e3U,
  0xe9112c480bc020deU, 0x4b0627cc44fdd0ceU, 0xd441a917040238bcU, 0xd8354c301c0413eaU,
  0x3b7de80b2f2cd50fU, 0x1d570015b63be439U, 0xc0f2d00133ce0c37U, 0x382339f2f9241f5eU,
  0xda19fb3d18d8bacdU, 0x5b2c061cdcac48f4U, 0x1808c2eb29033a19U, 0xdd2c17be22d5a5ceU,
  0x5c36c01012f5ce02U, 0xcddb62c41ab0fac1U, 0xe2104ad83ce36212U, 0xc244cff62ae2c2cfU,
  0x213d18ce100729edU, 0x1425b81f4caf53e5U, 0xbbe2c334cbe8dfb1U, 0x18d1bbcc8f5225c0U,
  0x15e504f33d0210e7U, 0x4da634f1dad056e9U, 0xbf654a2f3f4a0caeU, 0x3a3b4b42b640bd66U,
  0x2134c5c3513c5db9U, 0x5e56e84cc5c3ed29U, 0xc10f16313aefde19U, 0xbe62da003e2d0f41U,
  0xe9ced219ed0d9f2bU, 0x1b05d934c9d0c1b4U, 0xd32733afeee5c3b8U, 0xcde3e95b414cac1aU,
  0x8c8f352263202f6U, 0x3908655c3e2006ecU, 0xed0cd31a3d9cf9b4U, 0xcf6c23ec41552cf5U,
  0x3c4ae69f3bc7ac2eU, 0xcdfc181d21102b25U, 0x2c24c447fc8cea3U, 0x9444c828e55ef157U,
  0xf844fef5e61de0f0U, 0xb43412e33be603eaU, 0xe13def36d3f5e2f5U, 0xd04dc1dff29c8f2U,
  0x32fd2e2b0a0dffbbU, 0xedf42f1f00dfdb11U, 0x13dd0fcb01fd1c25U, 0xdacc0bf3cbf5cee7U,
  0x12f8d61e18170cc2U, 0xe7297f261c26380aU, 0x2ff30c0a12c9f02dU, 0x4328170731ee09d4U,
  0x29fdf6edfb33f033U, 0x23defecb0609faebU, 0xd93eeac5142e22eaU, 0xd6ddf715cfd5d31aU,
  0xef0ef11dd3f8f7d0U, 0xa71b9c272df215d9U, 0xc402a011e6db1220U, 0xfb1fdb11f02ee2a4U,
  0xf515bff51f090d26U, 0x3ce222450cc2e5ceU, 0xf629ff3210eb2418U, 0xe51729f6084c23dbU,
  0xddf2dfd990c294cU, 0xf9d605df1527190cU, 0xc61a06e22be2f91dU, 0x606b7ff0ec70d09U,
  0xe946ef09d828131aU, 0xf10a31db10ebf442U, 0xde0cdd073a41df1dU, 0x7e5390ce0d51333U,
  0x2a1ad8be28eb50bbU, 0xfab202262805122fU, 0x21e2d6d5e1b1e8d5U, 0xd9dfe3d7fadedc0aU,
  0xb23ddf0ef6da9e06U, 0xf238e31d13112221U, 0xd2c4fffefafc2015U, 0x1df1b9ecd5e6f626U,
  0xe5300cf810b435fcU, 0x2b211423b9f126e5U, 0xc12e03013b2bc5efU, 0xa427d9e72b34364cU,
  0xf937f5c2c3fd09ddU, 0xc6f02590082bf420U, 0xc31b15cfed433f22U, 0xc41b3e0a3438eb03U,
  0xb52ad610c30512ebU, 0xb5e0ea22fafc1009U, 0xc8c9ecf4ea19f3edU, 0x19fde125dacde7faU,
  0x19ceeeb83c471a1fU, 0xbbe004ef2c0ebc98U, 0xcd7da3ae1e2afdaU, 0x240d0b14fb40fdd3U,
  0xbecc253702ea2252U, 0x2110c0132cd9ca2aU, 0xceddfef8ff310e01U, 0xec06b2d1a2111e24U,
  0x19d8dce0e60bc20eU, 0x1b0ada4ef5d708c8U, 0xf535d5f905f4c5baU, 0x1ee2eedec420e604U,
  0xed3e3132319c614U, 0x21e2680ae5efef0eU, 0x37efe022f7c8e815U, 0x4019e7242712ecc1U,
  0xe97fd63a20e002bdU, 0xbd00cbff1d18e942U, 0xcb0d44bdc63333dbU, 0xe431fded192fda2aU,
  0xcfe65dea242ab41aU, 0xb0c1ff80202f4deU, 0xc19e114410a30fcU, 0xf63bd80ef53325c9U,
  0xc73018c0e4de2904U, 0x2c23d00e1dc640d3U, 0x15421fdac4f70221U, 0xd023c3bf1f33c5e1U,
  0xbd251119fd351022U, 0xde255fe34c44fadcU, 0x2803fbedd100e514U, 0x1d33c2523060b11U,
  0xc1733c50624f914U, 0xe4422039feed0ef8U, 0x33351dcf0e0625e2U, 0xd0d7d92b2efbf7ceU,
  0xf808ffe4e5ff2f26U, 0xdaef03f1161b20edU, 0xb4c0f0f611f42519U, 0x20036bd3070a1814U,
  0xc8f7d546f5e431e7U, 0x25a4faf53e2520deU, 0x3765cae4e3ab0d0cU, 0xedc7dfedc501f512U,
  0xc4f234dadcde411dU, 0xed2c410cfe3203cU, 0xfb332401c7cfbf43U, 0x2d18372713cb30e6U,
  0xd1a1c1d2520afa7U, 0x445206780c252708U, 0xc411f4ff021c0b39U, 0x1ab0fba8b50231fbU,
  0xe80023c2ec9eefe2U, 0x3626162fa1eb03c9U, 0xc3070f001e11f717U, 0xbfe21cb8f529f43eU,
  0xe262242e1900d2dfU, 0xbde61e509b2442efU, 0xd34428ef2c220c0cU, 0x2decfe40a0d0df9U,
  0xfbafaf6dba8f2b9U, 0x20e4ae329fbdfc2U, 0x4b1048c84acd00f4U, 0x1613eaf87fd02ad1U,
  0xe92dedc3dde4cb04U, 0xc7fcd727dfa8ef0dU, 0x28dd3518bc4d2bd4U, 0xf1fbef29d30b3806U,
  0xe6cd0fb61e09f219U, 0x9d51e10ba1fb4efU, 0x2ef82f434cd0e944U, 0xf06ae0a16ed1002U,
  0x3bf12e07fabdeccbU, 0x5fc0cb923cde604U, 0xb7bcd601a2011708U, 0xf2d115fa1510edc4U,
  0x2b03d2ac06fea634U, 0xe1171ac7dbe6291bU, 0x3ce44d3acd02f3f7U, 0x3ed8f23400ff2fd9U,
  0xf5b5e9fecfb71742U, 0xb15002c502faf2c5U, 0xcb0b1f13e107ab1bU, 0xebadf4c70b2019d8U,
  0xb2cb02a913f3c043U, 0xe3e4122acef90522U, 0xcf11ea2a21c5bd20U, 0xa0b11243edd543b5U,
  0xced70df70df9fb03U, 0xde0cb7f829de1507U, 0xabac335e6c1e32dU, 0xabeee4140edffc04U,
  0x2153511fb29e901U, 0x17331ac9bcc614deU, 0x814cbd302def6b7U, 0xf88125dd062bed1bU,
  0xf1d2d523eb416d14U, 0xc1c1b6e31907b5e1U, 0xdbe0a7eacef4f5eaU, 0xb22c8cdf0b9c8c3U,
  0x5d5eadfa21bd503U, 0x909f3ecdac1c6d2U, 0xf8ffd8b6dd221ec2U, 0xc2b8d7a83b29ec0fU,
  0xdaef08f1bbf424a7U, 0xfec2d91d24e1efdcU, 0xfecf7f1f0042addU, 0xf13d06481693e4e2U,
  0xb22e3a81fbc8e521U, 0xe2b6a13fb325dacdU, 0xffd6ee4bee2bdd49U, 0x48aac76c271665aaU,
  0xd8f62f3219a59112U, 0xa5fd23b73ae0f009U, 0xf1d2bd479a192e3eU, 0x3b0724d121e4e8e8U,
  0x132df915480609f7U, 0x4f13bddae02e1ddeU, 0xe9fcdd30f2d82b3dU, 0xbf9a19f505eaf3bbU,
  0xe60cf2b1cb45365cU, 0xd759f3ef4f2910c0U, 0xf7dbb33d8b372fcaU, 0xc3b10f17220dd403U,
  0x48e5bf0e5bc40272U, 0x3ca2a4da12fab703U, 0x1a2e68f00afb1ac9U, 0xbd203e6a1a1c7de4U,
  0x1cf4f10fb8b16223U, 0x2f33dbf32fbdf0f4U, 0x31aee7dc26c91fe8U, 0xd7d316d309ee3d03U,
  0xca39ede74513f8dcU, 0xc5e7f9be40183814U, 0xcd022215b8ca3fcdU, 0x22ec1d0762b13cd5U,
  0xb796b914af394a33U, 0x1cd9ebd8261dc9dbU, 0x29b5ef2af72bb03bU, 0xfcf70233b7a5dd12U,
  0x20c140e0e72918f0U, 0xd7c1afe3cf45cc32U, 0xf7e3562307c022f4U, 0xc4e70bc9083a2021U,
  0xc3a4eb3df72360f4U, 0xc51afe9b4ffcee28U, 0xbdd5cca7aebbfbfdU, 0x3ee39b203dddc2edU,
  0xcae5504812381bb4U, 0x1200fe20ce2717bfU, 0x34bfb94bbba33c98U, 0xd5359e1dddc2c920U,
  0xfce11be101cfe1bbU, 0xd912de039ddd3357U, 0xe2d40ed95c90cdceU, 0xaefaebc800c8001cU,
  0xef2ef52506bac0d4U, 0xf4524e10dde7e9b8U, 0x397c3aa7b232a334U, 0xffa55782e5b7f61bU,
  0xb4439e00a248ed3dU, 0x8279731eac87fc0U, 0xa3326142e25cc6faU, 0x350cbc2cb0c02829U,
  0xef461212e2fa2afeU, 0x3e542406a9b1e65eU, 0xdd2cb0a89bd6b809U, 0xcc20bb13a3afd0d5U,
  0x2930e62c9b20c2ddU, 0x2f3ebe321ad21138U, 0x2100372820fad19dU, 0x60cdae9d7e7d408U,
  0x24f4bcd12dfaa5bdU, 0xeef8d7a91d26c43eU, 0xe5dfebe6b0433a2eU, 0xb4e1aeec5b3a0520U,
  0xd4c6442a15bbc2b1U, 0xe5ebdaf2bd53f326U, 0x233dcee834f220bfU, 0xc12a2c0f3fcfefd3U,
  0xaf0f23394fa820d5U, 0x17a7d414d64fbe19U, 0x57bb3aca997db2cU, 0xc618050e38081cfcU,
  0xfc3ffd5b340e009U, 0x160bbea32b054542U, 0x4c110af54fdfad60U, 0xe413bf0afdf3c029U,
  0xb1c3ef461b39134dU, 0x1ad6ba021e1bad22U, 0x1441430b01602c7U, 0xd3433ad7ac33032aU,
  0xf806422b38273ee3U, 0xf3bfca2cf3ec1af3U, 0x1450fdc0469f14e2U, 0xb61a30eb313ebaefU,
  0xbfb33f13f23c6e25U, 0xd2cbc2f66004b637U, 0xcc35dbed28061a15U, 0xbf1fbcdf723f6beU,
  0xd05e912d1b8ab1eU, 0xcf0ff844c6ca0345U, 0x1e31000378e9c0b8U, 0xb6bde566ced437d9U,
  0xe6fc26d4052a27d7U, 0xa49f5fb5cc35acd6U, 0xebf8ce2daf1c49d9U, 0x4716bdd43d00b6e3U,
  0xdc7fd0d9f01ccac7U, 0xbe08e94023c726f0U, 0xb6d446e31941b813U, 0xc3f9e72bc744f5b8U,
  0xe5183812fce41cfaU, 0xc8de0ae60120e4c5U, 0x16e5c602cb0cfc40U, 0x31470f12f9af0aa6U,
  0x13bbf372847c3eaU, 0xf2f72509f9220428U, 0xbdb212c7e1df0433U, 0x3d1ed7e9edb6e627U,
  0xda0e0220ddccf2cbU, 0xbbc6f4b6d02cf6adU, 0xb33ac523fbad28faU, 0xbb1fe11e2234fcb3U,
  0xe905b5f84c1aa9f5U, 0x3c3709fdd7da18feU, 0xc74214295bd0ca37U, 0xb7ecce4edfc8d3b7U,
  0xee22ebd8e0fb422bU, 0x4ab9e929e8e62e36U, 0xcfbe00a6021a20e5U, 0x30403ea3e006194fU,
  0xc4c4fc7f0bd83418U, 0xc50e01f51fc5ccdeU, 0xcd363abf4944d7bbU, 0x4d50f27d0115e3eeU,
  0xac1494c9a3014d03U, 0x2f1cdc570e22dbdbU, 0xe4562217ac1142e7U, 0xd00e30bdeabb123eU,
  0x300b4d3e2fe5f3eeU, 0xc5b3a8c90554fca9U, 0xc6e53c05f0dbffd5U, 0xf3dab532d5972fb6U,
  0x26f39ae9feaeed1fU, 0xec022b4a41b8da48U, 0x99eeace9c5284eb8U, 0xcc91c9f2e5b13804U,
  0xf4f03a37ab0b2eU, 0xb2e0c44f15c8e4ceU, 0x3cdfdba44a1c1bbaU, 0xa13ffa2f36e1c9f8U,
  0x372c970e07404234U, 0xfc1f2ac86838a2d8U, 0xa816c521233102b4U, 0x4aeef1dadbd722baU,
  0xe53f1ef1eb0bc816U, 0xebae29c3330b2ef2U, 0xdee72697e838151aU, 0x95d2bfd6342b3ecfU,
  0x8181db922d53526U, 0xdbf8d66a3b0b1549U, 0xd41fd519ddb41fc8U, 0x2e06481232cecfe6U,
  0xf93219e985380ca6U, 0x31e0eda034f2ba23U, 0xb781be091d07c6e9U, 0xafb36eb35e6a5b2U,
  0xa6fc23f5e61a12d9U, 0x1dff548cbf8f0f6U, 0xdce2c4d5b7bf19edU, 0x99f5fcf1a4ebb537U,
  0x4d29e7df0adccae1U, 0x444111520cec003fU, 0xfc021de5d2b21d1eU, 0x30ce5520704b90fU,
  0xaf061cb8acd7110fU, 0x28d1e6e5eed3d93fU, 0xeb2e00ffeffff4d4U, 0xa62c550fe6fabbd9U,
  0xa15def856f819d7U, 0xcceef729d5fde5e3U, 0x23ff4c4fb2ca4ebU, 0x37b62c3e003ade11U,
  0xbf3ce443f1341e06U, 0xf3b361026e315e7U, 0x3ed801dddd4332faU, 0xcf7d3124e2fd6ecU,
  0xc459d3fc3ce82affU, 0x5708d327300fbffcU, 0xc705f710e52742e2U, 0x20e5f75acc41243aU,
  0xc8ef27f63e1d48b2U, 0x6d57ff14bcbe019U, 0x49a115000d0239e0U, 0xcd171cc03c1ccd3fU,
  0xf368c7f0ffe60ee5U, 0xee244c1baedc1a3dU, 0x13b674e73223f4deU, 0xf224d51f30b3abb1U,
  0xd8f44504cc0c520bU, 0xe6df44eb3af21d16U, 0xd1e5c1cdb4260cd6U, 0xff18f44cfbfcdfdbU,
  0x46da2df930e63c07U, 0x43f9c4fe403104f1U, 0xaf006eb2067ebd5U, 0x2b065205fddab2e7U,
  0xa83903f821bcba40U, 0x7b8e30536defd0cU, 0x15c15ee9f4c01247U, 0x2914cb0b1812dcd4U,
  0xcadccfeebec0e951U, 0xc2d1df212b20911U, 0x294ee10ed8de23eaU, 0x23e1f0374119bcafU,
  0xf2c21fc647db043aU, 0x3fba91d8eaa056dfU, 0x2ff8283100cf012eU, 0xfa194f572c20f41eU,
  0x4be69dd51e12e605U, 0xaad7dea4190b03d6U, 0xf4ce0b19c841ed23U, 0xaac0a907172f08daU,
  0x29e91394b6e2d844U, 0x13c9ec4fd92349ffU, 0x10223d17f1af35e1U, 0x2c9e6db1de9ae30U,
  0xeccadcf19b3726c1U, 0x4df22be2c24e709U, 0xcac9b215e101dfe4U, 0xc1260bd4e6f2232cU,
  0xe9171b0ddfe92b22U, 0xace2fe06dcbae42aU, 0xbdd6c9b5c3441905U, 0x3ee1f0023fe528a8U,
  0xf4e5431b453c3520U, 0x1881eef2d410e8c1U, 0xd02e323ecece1f4U, 0xc302b08fa04e5f0U,
  0x17f641a9f643e7dcU, 0xdde1e5f2d4d8c6eaU, 0xc309fbbce14818f0U, 0xd7be32fa241c30e9U,
  0xa9c0fdf3acab1b00U, 0x2bd801f41be1240eU, 0xc712cbd4e7cb1b31U, 0x14f7b926019329f6U,
  0xb905afc4faed5703U, 0x1e2d552ef7bf1221U, 0xb5d3fb30e5f8e9f3U, 0x2423e8e7e00300edU,
  0x29f5feffe41f1df0U, 0x2727fcfcf1ca57e7U, 0xe47f211a1533c907U, 0x6d7283af027e003U,
  0xba38a70921d72611U, 0x1de43f3350f8f5ceU, 0x2adf34f0ccdec7d8U, 0x3f38f3f5511c44edU,
  0x3150403dde0e01d6U, 0xfed7553cb4b2f339U, 0xdb1c3ea70047062bU, 0xb619ef35c7e32ecdU,
  0x14013c28f4b00316U, 0x25bad4d45a0a1910U, 0xe3cd9d0fe5b6d306U, 0xdc2ef2be27e8fad4U,
  0x31ffff25e00a4939U, 0xf7c839e9dc0611daU, 0xe84f22feedfad0b0U, 0x12eee42ff50ffb22U,
  0x17e4e0c733fc61eaU, 0xf10ecd70101e5fdU, 0xdc129defb432dc4U, 0x2e38110cc22f2220U,
  0xd01d1c36d0225defU, 0x44ee0d11e0e433ffU, 0x22eb4102484010efU, 0xb8ce3f0dbadcfa0eU,
  0xd0eaef0705e46fdcU, 0x60d3c1000be7cde8U, 0xf0ba0dd3f4cdbefbU, 0xe73fca262ca72904U,
  0xda3afef30daa01d7U, 0xe91027528ef221e5U, 0x1b46db2a023cd332U, 0xa58f2f27c84cd30cU,
  0x2e26b9afdfebdff8U, 0x35daa2d412d6a8f3U, 0x240b098100ddb826U, 0x3626dd04f8d3e310U,
  0xa318ac07f4103c96U, 0x269cdfb2da08b6bcU, 0x9d3404022a49249fU, 0xdf06a7fbf39f2ad0U,
  0x9b7710b2264d07b5U, 0x3e6103754300a00U, 0xefd1e494bc0cc13bU, 0x4d2621aa5f7aa37U,
  0xee4136f1e6dafbe0U, 0xe9d8dfa62eda46b3U, 0x141d34d0ae4742b7U, 0xf813cfe8d3cef2d8U,
  0xb6e91deadd2d4caaU, 0xdc02b21245b30cdaU, 0xb6dd02ed2206d7d9U, 0x21f431289dd403fbU,
  0xec272228b2b71107U, 0x1ddc2360ae72b3cU, 0xecd131222ec3bce8U, 0xf5f729a9ba2ef714U,
  0xceced3f1baf2f02fU, 0xbaff15d7d4f0a632U, 0x95bed7cc2807d9cbU, 0xf52a2f289ffaf7eaU,
  0xd42501cc1a9712eaU, 0x2cd9e4b7c11d3addU, 0x21b002f6335f1b9eU, 0xb117c021c737131cU,
  0x2e2313eff9385aedU, 0xb9abd65f36d93af4U, 0xcc00e9f514a0f33cU, 0x3608dd9fbaefd4bfU,
  0xd546d5f8d11fb3f0U, 0x232722d4e8341c03U, 0x46b64840ff589e15U, 0xd2e1c3e62927eef2U,
  0xa35e97240ff377baU, 0xe312e9deb50081c0U, 0x91a4960817bff5baU, 0xe6aac3f8cd2f20dbU,
  0x2f4224f2eb8306a4U, 0xeca9d5200cd304daU, 0x6310e08073493acU, 0xeade6829ac40a3eU,
  0xf36b5419d362f22bU, 0xba54b827c1e5f5aeU, 0xed319bf3284a3d08U, 0x16b734cffda44c3cU,
  0x477d2e453dbd6f3dU, 0x3904f41250dbfd37U, 0xdbd0e813d11153a5U, 0x2553477328d4e22bU,
  0xbb480d3d1943400aU, 0x422b4035f3909715U, 0xb0e0f92358fdc897U, 0xe22014a9d1b8fb56U,
  0xf4aef16031c932cU, 0xc9043528a4fd00b1U, 0xe32d3ec961d4a1c3U, 0xfd4123d90eb11cdfU,
  0x2b46deb84ec244c8U, 0xb354f3df71bbe745U, 0xb81694db0dafac02U, 0x2c3ad605c2e4aa12U,
  0x5e21e2c4f209d7abU, 0xc9f410f5153b5803U, 0x29fbf507ee6be4b4U, 0x99f3c3e9382d1129U,
  0x311118de263ef209U, 0x49e9d7323f26f6c4U, 0xa50cb50cea2fb6fbU, 0xdfcfb107051e100aU,
  0x5130f11ce5611c23U, 0xfee43fe00fdf2233U, 0xf1de652111bbad1dU, 0x7c75d4ac72bd53eU,
  0x32d30ae62ff918e4U, 0x24ef21433508fe07U, 0x27affb140a090544U, 0x29bf151dd1dd46f1U,
  0x7e60c150cd5133dU, 0xa611e1e6e814e742U, 0xd6eb2cfc0fe3dfeaU, 0xfaf5df25c6010211U,
  0xafba379ee8e9db43U, 0xe9aaeefaefc10dbcU, 0xd2dbde25ba0ed1e0U, 0xe4e9c5e6f029efb2U,
  0xcae4ce08f41719dbU, 0xf0d2c5db09e3adecU, 0xee99ba30c3b7f904U, 0xed1231e0ecd3ceeaU,
  0xd9dfdcc5deebfb34U, 0x20cde021ee11f103U, 0x2412382538c61af8U, 0xd9bbd8ff13ee270bU,
  0x2900f0d8b32dcf28U, 0xd2b7e7da2ee042e2U, 0x11cb24cbc51d28daU, 0xcb2b341de0b60217U,
  0x10c2eab4ec1dbc37U, 0xb43999c6d4f7dab1U, 0xd5f7ab1107fe2d39U, 0x9e230e43ec1211bU,
  0xe910f018d1362c08U, 0x22bc06160e1a2f26U, 0x2dfb160e16ad0003U, 0xfff81920dda715c2U,
  0x16c54d27f4d01724U, 0xffa5ddfeb4441b2eU, 0xd2d65bffe2f12913U, 0x3a2c12a03d3af4eU,
  0xd0221fd41e0412b2U, 0x2b141fffe838e1dbU, 0xfde9bc22e6f8261cU, 0xf0e01e0f2e81f6f7U,
  0xe24525c8e124fcd2U, 0x3b1a4b31e82ee458U, 0xd1b0cd16ebba4adeU, 0xb12fedccbfd6e4ebU,
  0xf444de58dbd8ecfdU, 0xffc54e0234cabb1dU, 0x4a1ac30f05683ce2U, 0xebecb268f2650acbU,
  0xfc3e02070bf1ceffU, 0xf739edb00e1b4cc2U, 0xb51ac5f63232cdbcU, 0xbae827bcf8c03c43U,
  0xd6cd32d1a9f1f3c4U, 0x10d63d2705e5bea9U, 0xc1540f38b1e338c2U, 0x34bfd1f5f7d1bee5U,
  0xec3417c93fd36ecbU, 0xf1bcdd95d936de14U, 0x380ec701b5d7b3e1U, 0xd715e1cde94dc5beU,
  0x244701e811b430c2U, 0xc959c17eb8dcdff1U, 0xf7b75c3555fa191cU, 0xa5080cdbcb332dfdU,
  0x1455a63f462d272aU, 0xe4d076bf95eff331U, 0x2f43a2d1f8c15318U, 0xe41009fbe418ee16U,
  0xf55214ee5fec7aaU, 0xcaeccc6b1ef71653U, 0xadeac404f9eb2ec0U, 0xa826d7ec10e31649U,
  0xe135a7c8513327eeU, 0x13bb981f90b0dU, 0xccf08543f106fed7U, 0xb3f1ce31f3224036U,
  0xd268e61dd4bee913U, 0x3cddc42a29e7312cU, 0x144c11e6f7f9d0f8U, 0xb6e3b9e8cbe42568U,
  0xa107f50b137d99f3U, 0xaa1da44dc51d4ffdU, 0xe1b03b22847d3bdU, 0x86c96aaffee72d03U,
  0xe03e54914183cfbU, 0x6f25d2ee052ed939U, 0xccea052bc8dc49c7U, 0x60c8a762e7c79839U,
  0x16cdd8eec6070af5U, 0xfbbdd73039a4bfecU, 0x4b19aac527cd3ce5U, 0xc9ea160f202e2fefU,
  0xe5c1fd289732c7a7U, 0x26d52b1ae3f51cd3U, 0x3fc4e25fb942214U, 0xccdb0115f7f5c939U,
  0x3e313d51af10b200U, 0xf528c2d0f1d9161bU, 0xac262688fb47e9c6U, 0xefeb3181bce51233U,
  0x10d329fb44efeba6U, 0x6df06def0e2d3e0U, 0x15cf4b2d0a9aacc3U, 0xf70ba59bac1801e3U,
  0x45c4c74aedbbc10fU, 0x1da9d4c24d1f5839U, 0xbc46ededcbd51618U, 0xb30db1ec7a723e2U,
  0xfb8127adf850e72bU, 0xba46d6dbe0ca21fcU, 0x211f0503f5180a00U, 0x619e510ae9221f5U,
  0xbabedd0d06e71da7U, 0x2c7d0e93d4ab74aU, 0xdc0c55091928f111U, 0x5d7205d8d4c3d723U,
  0x3ac51bcc4310f606U, 0xb82a1d578df201d0U, 0x5d5555b4481d525eU, 0x14a7152a0d221b0cU,
  0x29b7ebf498db194aU, 0x24c600ec074224a5U, 0xc22cbbf9c2f5e698U, 0x225e0e2b1434080fU,
  0xc2c4273e42f5c82cU, 0x463ead3f330324b7U, 0x4130e60b0ee430acU, 0xd9b764fc3a5dc963U,
  0x9d8fe1c5c8c9b709U, 0xe4db28d2c82416d7U, 0xa531cd1cad29d225U, 0xd50a2ccf29b2b4dcU,
  0xdabf343926e346f5U, 0xb332c0d8c5130d91U, 0xc92cefa5b9401d0bU, 0xdc9969b92825c766U,
  0x89d4450516171f88U, 0x1de6dcd49afd9c2eU, 0xbe0735fb1e2316e8U, 0xb6ba33dfaed5ceb4U,
  0xfdf212e2c724d300U, 0xe73be51fa7e7b241U, 0xf4f4d4a5e7e6062fU, 0xcdfcac8bf7c8c9c9U,
  0xfa04049234fec314U, 0x16c015bb1307afb5U, 0xcd449f4d5b7acd8U, 0x12a9140e0b07e5eaU,
  0x2a00dcad20ac21d1U, 0xc235bdd3bf14f0c7U, 0xd418d4b34ff9f5a3U, 0x26c6113f322ccf2cU,
  0x7c5c9f63bb393d2U, 0xd5c8c80a04d4a99eU, 0x19224c2c2340ddfbU, 0xf9023f81fcacc7e6U,
  0x2b3f3a313941eb34U, 0xe0db1b102dc505b9U, 0xc243caebf6ba2efcU, 0xef8201d5250fcba9U,
  0xfedbe5241af7cf12U, 0xf716f7ef01f9fcbaU, 0x2ada21e8e50add39U, 0xba31f3041e173033U,
  0xed1fb2c2f60a192dU, 0xe7f8f0031ff7c4b7U, 0xedf1e2f719ffe5c4U, 0xeb102aabc8c44214U,
  0x4e34e1b2535cd18U, 0xd73dee1ec3372cf6U, 0xe2043efeca04e61bU, 0xd605dd0bf9cafdceU,
  0x11812a0f263514f0U, 0x2f03f0d02ff6c91bU, 0x1afb003ecceec01U, 0x25c2f90af621010cU,
  0xd7d52231e4fb9fdeU, 0xd7ee1ce40bd21b2bU, 0x21dd29dcd9cdf1ceU, 0x2d0d442cd9fc0635U,
  0xd30037f0df1dc927U, 0xc0f1e90f15c8aa1cU, 0xac03df6260812abU, 0xd9ff2d5a3ff2bea8U,
  0x39d0540831d2f6efU, 0x3cddcc27ba38c5d9U, 0xee418abb7270509U, 0xb9de2c3146e4e1deU,
  0xadc902011f0e07f7U, 0xc12269b00cef107U, 0x313ae711cf1de1d7U, 0x26260ce012f91ddeU,
  0x10504a039ef5cfd5U, 0x1cecdebf737e001U, 0x1a1cfb381f0a0322U, 0xf6cfeb182c19fcf7U,
  0xeebc1fc4dbed1810U, 0x3936f834ed02ba03U, 0x7f91e1b18d2f218U, 0xef0efecbf7ee25e5U,
  0x4c7a1c3ce42fb02U, 0xee1aab41302d2af1U, 0x43462412e2b6c335U, 0xafd6a32a430c54d8U,
  0x3515092ce41ff32dU, 0x2dea0aa5e8fd3ec1U, 0x9d4427cbcc08162fU, 0xa8aee5f2bebe0222U,
  0xbc1c9e15be97b4c3U, 0xba05d01a1b089e33U, 0x25ebdea520f4c307U, 0xfe3d31e5d621c4eeU,
  0x1942aa57ebc7def2U, 0x8e5f9e3c4269e26U, 0xdce596e10da5b0ecU, 0x44fede063220b29cU,
  0x8acdb9ec7e8062bU, 0x232ce23ceb18be1eU, 0xbaacb51648a8bbd9U, 0x36de15c105103fcbU,
  0xeeed050833c5149dU, 0x37c4c5acc00010c9U, 0xc1da16ff21d910dfU, 0x1ddf389bd5fc2e3dU,
  0x14e537ee08d298b6U, 0xe43e93211f718fdU, 0x391fe3cecb4303eaU, 0xb4c7cedde328ca20U,
  0x3929ad09130be01aU, 0x1fed30eab9daae29U, 0x3b4c9ac62149cffcU, 0x4316fd02182fc0faU,
  0x2cbe85b99c27be17U, 0xd4f93abba4c6dac9U, 0x3b0181b6c8a63840U, 0xdb2615921c333322U,
  0x6e4dff2c32bf9fbU, 0x11d3a826b4eecbdbU, 0xe5170635d1e0342bU, 0xebbe41233eeb1d06U,
  0x191204074ceb0fd7U, 0xe0f627040629b1feU, 0xfeea25d5dfd2b7f7U, 0x2efc0009bb231bbeU,
  0xa3341818a7c70502U, 0xe3d6ca0343c0fd3fU, 0x351334ba3c1f24b8U, 0xf33cc509f438b7f6U,
  0xf5fbccd101e3f2e4U, 0x8db3af44ff81806U, 0x33f31ec931140e07U, 0xbf4ebed609e3b2f5U,
  0xc93b203ab0ffed38U, 0x46b3e03ec2c23c15U, 0x3feed0022a23c3d8U, 0xcd2a192c01fee309U,
  0xf040e6e3b2042918U, 0xe52919104fcd2df1U, 0x27d9edadc1d92c11U, 0x122eaadae92dd42aU,
  0x33f5f24137dceb36U, 0xec0cce5cc63cf930U, 0xe63dcfaef131011fU, 0xdfda1f14bc0911e3U,
  0x1520281a02dfe4e2U, 0xede818f901e5eafcU, 0xbe16f4c1c329e518U, 0x38271b092643f613U,
  0x3bf8bc1013f62510U, 0xe539e8c71d262fbdU, 0xe2311cb2e1e23504U, 0x4ef14cdd4f9e1c4U,
  0xc3c7c3dd28fde5cdU, 0x1f2e112cd013f9f2U, 0xde4281d814a92bccU, 0x1ad713b804e538U,
  0x3a4cfdd4c00a1b24U, 0xba2f20e6f90ec4c0U, 0x13c91de50e28ce19U, 0x361cf00e0830cc30U,
  0xdc3218c2ee47dbf8U, 0x46bfe721be15049aU, 0xdb2bcbc4f730b0f0U, 0xae640e72ec2ff23U,
  0xf5b6e8effc033011U, 0x182f07c244dec205U, 0xf418e90be31a3936U, 0xdf7b8150be6da28U,
  0x1ad9eafa1504050aU, 0x9dc156d40ee62638U, 0x4315cac34da0d4d3U, 0x1afa0e25f7101a39U,
  0xa0614ceec3fb0acU, 0xd52742d7ba34fd1aU, 0xe1e5fcf33c52e7e3U, 0xeefb1afc3806be07U,
  0xf21b0cb99b62abbU, 0x8a36f90d2514b9c0U, 0xee9a8110fb392d1fU, 0x4df830c9c8f2b307U,
  0x2236b3dd61241910U, 0xc8e51b19f126dec0U, 0x14c1f03866ef0618U, 0xe1cbd8ecb81bf331U,
  0xde2dd59bad62409U, 0xaf20190fbd3cfdf1U, 0xb818b610ee44b4adU, 0xd8c00fccb6e0dfa3U,
  0x1ef00938df1bec1aU, 0x3ef3f7293503acfdU, 0x14d8a0a92ba4f604U, 0x23060b00be0a31b4U,
  0xeb28361f31fa07e8U, 0x3ed14aed16200de8U, 0x2934d3e6e3b92d31U, 0xdce90733c5cdeac4U,
  0xe9ff33fed72dcddbU, 0x20e223daff31bb24U, 0xc6b986f12cc5290eU, 0xf3212358eed7c8e7U,
  0xa439e300c9e22801U, 0xee35b3e0e5522a3fU, 0xaefdf42b33e502aeU, 0x57c42010f106dc65U,
  0x5350f6eecdfc0220U, 0x3450c8631654eb2fU, 0xf6e57317f733d824U, 0x23a11c999545c1edU,
  0x2ad42849b8c32223U, 0xcf5712c009e8c0U, 0xfe452fadaeb829cbU, 0xc9c0f90e0bd925e9U,
  0xfd1bb5b83fb5f109U, 0xbb0a13edd43f7f56U, 0x35f135c4b71aab33U, 0xa6a430e53d0dd62fU,
  0xadb154b8e8d028b6U, 0x1fe7eb0821211a13U, 0x2c3c2c9a2eb270bU, 0x482cc7251a29cd1eU,
  0xe40ad3ecb7fceed7U, 0xf523a5f6ab40d4f0U, 0x1ee9e5e2041fe4ffU, 0xa0cd2a0e8fcde643U,
  0xafd23346aa07acccU, 0xd7ca0c4339aec20dU, 0xf348bf31a53adccU, 0x2351c50dfa24a338U,
  0x16669f94451560dcU, 0xd8deb12b0ea218fdU, 0xb154008d1f54caaU, 0xb38cf14ceb5794aeU,
  0x38ffe496b902d62cU, 0xc7eac6fe5bffcdc9U, 0x37c3ead60bd8e49eU, 0xc3f65c3be2930929U,
  0xa651eef8d5c0dc54U, 0xe24eebcad53ee3e4U, 0xda14ed0fffe204a6U, 0x1228d631bf1006f9U,
  0xcac7a12554f314e0U, 0xcc08c544e5da49afU, 0x36c9dbb4fea8abb0U, 0xdd5b2b033cbcc901U,
  0x44b203c149d0b3d2U, 0x1527b433c3e81a31U, 0x10b3e2e8395b1e13U, 0x112afd60727cd6eU,
  0x9232e1e4ccbd6e6U, 0xd830611eef8fe7fbU, 0x2f36acdcaa1005d2U, 0xf141f9dbc0364adcU,
  0x5cd31bda30bf26cdU, 0xcb6c894b4287611U, 0xb0d4c0377ce300beU, 0xa2a3dd38ffe51551U,
  0x30160c4e37133f4aU, 0xe9b64eac49ff473bU, 0xdc15c1ded9fa392bU, 0xe7caf3c4c9c513ffU,
  0x3be5c2dff412eb2cU, 0x5b48f184d9db6227U, 0xed49d2bf2c3ad1eU, 0x47aeb7d9dd50dfe0U,
  0x21b5df49e6c5be34U, 0x31f4fe84cdf423f6U, 0xd93a90d558d5a5c9U, 0xdbfb311f3becfbc5U,
  0xf533c33957132315U, 0xddac640bee4313eU, 0x984b45b66cd5bd40U, 0xab0f202bf8f2ae07U,
  0x90c4bffdf6c72edcU, 0x2cbea9cec4271eabU, 0x5c5b8fe21da7fb23U, 0x84b061e12310298U,
  0x7323141a5f93f0feU, 0xfc4125049a1a92bU, 0x1b14a1023f1de116U, 0xa6f43e0f3d7fc1e7U,
